{
  "version": "1.0",
  "truncation": null,
  "padding": null,
  "added_tokens": [
    {
      "id": 0,
      "content": "[UNK]",
      "single_word": false,
      "lstrip": false,
      "rstrip": false,
      "normalized": false,
      "special": true
    },
    {
      "id": 1,
      "content": "[CLS]",
      "single_word": false,
      "lstrip": false,
      "rstrip": false,
      "normalized": false,
      "special": true
    },
    {
      "id": 2,
      "content": "[SEP]",
      "single_word": false,
      "lstrip": false,
      "rstrip": false,
      "normalized": false,
      "special": true
    },
    {
      "id": 3,
      "content": "[PAD]",
      "single_word": false,
      "lstrip": false,
      "rstrip": false,
      "normalized": false,
      "special": true
    },
    {
      "id": 4,
      "content": "[MASK]",
      "single_word": false,
      "lstrip": false,
      "rstrip": false,
      "normalized": false,
      "special": true
    }
  ],
  "normalizer": null,
  "pre_tokenizer": {
    "type": "Whitespace"
  },
  "post_processor": null,
  "decoder": null,
  "model": {
    "type": "BPE",
    "dropout": null,
    "unk_token": "[UNK]",
    "continuing_subword_prefix": null,
    "end_of_word_suffix": null,
    "fuse_unk": false,
    "byte_fallback": false,
    "ignore_merges": false,
    "vocab": {
      "[UNK]": 0,
      "[CLS]": 1,
      "[SEP]": 2,
      "[PAD]": 3,
      "[MASK]": 4,
      "!": 5,
      "\"": 6,
      "'": 7,
      "(": 8,
      ")": 9,
      "*": 10,
      ",": 11,
      "-": 12,
      ".": 13,
      "/": 14,
      "0": 15,
      "1": 16,
      "2": 17,
      "3": 18,
      "4": 19,
      "5": 20,
      "6": 21,
      "7": 22,
      "8": 23,
      "9": 24,
      ":": 25,
      ";": 26,
      "<": 27,
      ">": 28,
      "?": 29,
      "A": 30,
      "B": 31,
      "C": 32,
      "D": 33,
      "E": 34,
      "F": 35,
      "G": 36,
      "H": 37,
      "I": 38,
      "J": 39,
      "K": 40,
      "L": 41,
      "M": 42,
      "N": 43,
      "O": 44,
      "P": 45,
      "Q": 46,
      "R": 47,
      "S": 48,
      "T": 49,
      "U": 50,
      "V": 51,
      "W": 52,
      "X": 53,
      "Y": 54,
      "Z": 55,
      "]": 56,
      "a": 57,
      "b": 58,
      "c": 59,
      "d": 60,
      "e": 61,
      "f": 62,
      "g": 63,
      "h": 64,
      "i": 65,
      "j": 66,
      "k": 67,
      "l": 68,
      "m": 69,
      "n": 70,
      "o": 71,
      "p": 72,
      "q": 73,
      "r": 74,
      "s": 75,
      "t": 76,
      "u": 77,
      "v": 78,
      "w": 79,
      "x": 80,
      "y": 81,
      "z": 82,
      "«": 83,
      "»": 84,
      "À": 85,
      "Ó": 86,
      "à": 87,
      "á": 88,
      "ä": 89,
      "ç": 90,
      "é": 91,
      "ó": 92,
      "ô": 93,
      "ö": 94,
      "ü": 95,
      "Ą": 96,
      "ą": 97,
      "Ć": 98,
      "ć": 99,
      "Ę": 100,
      "ę": 101,
      "Ł": 102,
      "ł": 103,
      "Ń": 104,
      "ń": 105,
      "Ś": 106,
      "ś": 107,
      "Ź": 108,
      "ź": 109,
      "Ż": 110,
      "ż": 111,
      "–": 112,
      "—": 113,
      "’": 114,
      "”": 115,
      "„": 116,
      "…": 117,
      "ie": 118,
      "rz": 119,
      "nie": 120,
      "na": 121,
      "ch": 122,
      "sz": 123,
      "cz": 124,
      "po": 125,
      "ał": 126,
      "ię": 127,
      "st": 128,
      "ni": 129,
      "dz": 130,
      "ra": 131,
      "ro": 132,
      "rze": 133,
      "się": 134,
      "li": 135,
      "wi": 136,
      "go": 137,
      "je": 138,
      "ko": 139,
      "ci": 140,
      "za": 141,
      "do": 142,
      "ło": 143,
      "le": 144,
      "mi": 145,
      "wa": 146,
      "by": 147,
      "ka": 148,
      "wie": 149,
      "rzy": 150,
      "ła": 151,
      "że": 152,
      "ta": 153,
      "pa": 154,
      "ki": 155,
      "wy": 156,
      "ja": 157,
      "to": 158,
      "ny": 159,
      "te": 160,
      "wo": 161,
      "no": 162,
      "ty": 163,
      "dzi": 164,
      "ne": 165,
      "da": 166,
      "ów": 167,
      "dzie": 168,
      "czy": 169,
      "ry": 170,
      "dy": 171,
      "cie": 172,
      "em": 173,
      "od": 174,
      "la": 175,
      "prze": 176,
      "mo": 177,
      "szy": 178,
      "kie": 179,
      "ma": 180,
      "ją": 181,
      "bo": 182,
      "si": 183,
      "mie": 184,
      "ce": 185,
      "przy": 186,
      "ku": 187,
      "kt": 188,
      "mu": 189,
      "sta": 190,
      "cze": 191,
      "ną": 192,
      "re": 193,
      "ści": 194,
      "ły": 195,
      "we": 196,
      "któ": 197,
      "ba": 198,
      "ru": 199,
      "my": 200,
      "sze": 201,
      "bie": 202,
      "cy": 203,
      "wał": 204,
      "co": 205,
      "pie": 206,
      "sa": 207,
      "cza": 208,
      "bi": 209,
      "cho": 210,
      "ró": 211,
      "jak": 212,
      "nia": 213,
      "łu": 214,
      "roz": 215,
      "raz": 216,
      "ść": 217,
      "ży": 218,
      "lu": 219,
      "tu": 220,
      "ski": 221,
      "wszy": 222,
      "ga": 223,
      "ała": 224,
      "ju": 225,
      "ze": 226,
      "ca": 227,
      "pi": 228,
      "rę": 229,
      "gło": 230,
      "pan": 231,
      "ale": 232,
      "spo": 233,
      "wia": 234,
      "so": 235,
      "tak": 236,
      "sza": 237,
      "de": 238,
      "gi": 239,
      "pra": 240,
      "mó": 241,
      "pod": 242,
      "zna": 243,
      "wię": 244,
      "kł": 245,
      "mnie": 246,
      "sk": 247,
      "nę": 248,
      "ały": 249,
      "cha": 250,
      "gdy": 251,
      "Nie": 252,
      "sie": 253,
      "be": 254,
      "sto": 255,
      "du": 256,
      "który": 257,
      "pe": 258,
      "jest": 259,
      "rzekł": 260,
      "skie": 261,
      "już": 262,
      "czę": 263,
      "nych": 264,
      "Po": 265,
      "pu": 266,
      "jąc": 267,
      "szcze": 268,
      "ało": 269,
      "ob": 270,
      "Za": 271,
      "nym": 272,
      "ich": 273,
      "jej": 274,
      "nął": 275,
      "Na": 276,
      "niej": 277,
      "jed": 278,
      "pro": 279,
      "Ja": 280,
      "lo": 281,
      "ska": 282,
      "ża": 283,
      "py": 284,
      "jego": 285,
      "myś": 286,
      "rą": 287,
      "bę": 288,
      "sy": 289,
      "sią": 290,
      "wać": 291,
      "lko": 292,
      "powie": 293,
      "zy": 294,
      "tym": 295,
      "su": 296,
      "on": 297,
      "mówi": 298,
      "gł": 299,
      "se": 300,
      "ję": 301,
      "czą": 302,
      "był": 303,
      "dł": 304,
      "które": 305,
      "wszyst": 306,
      "dział": 307,
      "nej": 308,
      "nic": 309,
      "tylko": 310,
      "mię": 311,
      "dla": 312,
      "Wo": 313,
      "Bo": 314,
      "in": 315,
      "an": 316,
      "me": 317,
      "tego": 318,
      "bu": 319,
      "rza": 320,
      "dob": 321,
      "było": 322,
      "wz": 323,
      "ście": 324,
      "jeszcze": 325,
      "wą": 326,
      "trzy": 327,
      "przed": 328,
      "czas": 329,
      "ąc": 330,
      "naj": 331,
      "żo": 332,
      "zo": 333,
      "tem": 334,
      "czo": 335,
      "!…": 336,
      "słu": 337,
      "Ch": 338,
      "mia": 339,
      "nego": 340,
      "ąd": 341,
      "chwi": 342,
      "pó": 343,
      "niu": 344,
      "ków": 345,
      "sła": 346,
      "lę": 347,
      "Ta": 348,
      "sko": 349,
      "cu": 350,
      "tej": 351,
      "kę": 352,
      "tę": 353,
      "przez": 354,
      "zie": 355,
      "bra": 356,
      "Je": 357,
      "cię": 358,
      "tam": 359,
      "nim": 360,
      "sło": 361,
      "Ale": 362,
      "cią": 363,
      "dro": 364,
      "trze": 365,
      "gie": 366,
      "nad": 367,
      "ką": 368,
      "kiem": 369,
      "wiel": 370,
      "fi": 371,
      "ten": 372,
      "zaś": 373,
      "bli": 374,
      "dę": 375,
      "wła": 376,
      "sobie": 377,
      "nu": 378,
      "cia": 379,
      "kró": 380,
      "al": 381,
      "jo": 382,
      "twa": 383,
      "może": 384,
      "pier": 385,
      "miał": 386,
      "im": 387,
      "gro": 388,
      "zu": 389,
      "żę": 390,
      "?…": 391,
      "bez": 392,
      "To": 393,
      "wę": 394,
      "ar": 395,
      "śli": 396,
      "pła": 397,
      "śmie": 398,
      "gu": 399,
      "sty": 400,
      "chy": 401,
      "rów": 402,
      "kich": 403,
      "jako": 404,
      "sia": 405,
      "krzy": 406,
      "stra": 407,
      "czu": 408,
      "cał": 409,
      "cił": 410,
      "wró": 411,
      "tych": 412,
      "będzie": 413,
      "nio": 414,
      "kła": 415,
      "tał": 416,
      "wó": 417,
      "wsze": 418,
      "kim": 419,
      "myśl": 420,
      "Wi": 421,
      "dzy": 422,
      "zi": 423,
      "stro": 424,
      "więc": 425,
      "ksią": 426,
      "tro": 427,
      "nią": 428,
      "rzu": 429,
      "wet": 430,
      "niem": 431,
      "dzo": 432,
      "woj": 433,
      "or": 434,
      "dał": 435,
      "wski": 436,
      "gę": 437,
      "two": 438,
      "dze": 439,
      "sam": 440,
      "oczy": 441,
      "sły": 442,
      "łe": 443,
      "chodzi": 444,
      "wej": 445,
      "bar": 446,
      "gó": 447,
      "praw": 448,
      "jedna": 449,
      "nawet": 450,
      "też": 451,
      "dać": 452,
      "są": 453,
      "ności": 454,
      "wu": 455,
      "skiego": 456,
      "Ma": 457,
      "ona": 458,
      "swo": 459,
      "dą": 460,
      "dru": 461,
      "resz": 462,
      "Le": 463,
      "stę": 464,
      "wią": 465,
      "Sta": 466,
      "bym": 467,
      "albo": 468,
      "wiem": 469,
      "pię": 470,
      "mę": 471,
      "par": 472,
      "kul": 473,
      "sł": 474,
      "ok": 475,
      "tą": 476,
      "książę": 477,
      "Pa": 478,
      "tra": 479,
      "peł": 480,
      "śnie": 481,
      "szczę": 482,
      "nów": 483,
      "ser": 484,
      "dź": 485,
      "szedł": 486,
      "wała": 487,
      "ste": 488,
      "pana": 489,
      "czął": 490,
      "zło": 491,
      "Ty": 492,
      "kiego": 493,
      "ność": 494,
      "łody": 495,
      "świa": 496,
      "chci": 497,
      "gdzie": 498,
      "dłu": 499,
      "strze": 500,
      "księ": 501,
      "chwili": 502,
      "dale": 503,
      "trz": 504,
      "być": 505,
      "wol": 506,
      "kto": 507,
      "teraz": 508,
      "bro": 509,
      "mówił": 510,
      "szą": 511,
      "nię": 512,
      "wił": 513,
      "pew": 514,
      "Wokul": 515,
      "ciąg": 516,
      "cej": 517,
      "świe": 518,
      "czył": 519,
      "Co": 520,
      "Ju": 521,
      "Ra": 522,
      "czym": 523,
      "nik": 524,
      "wali": 525,
      "pow": 526,
      "den": 527,
      "jednak": 528,
      "nich": 529,
      "niego": 530,
      "óg": 531,
      "kaz": 532,
      "kil": 533,
      "fa": 534,
      "jący": 535,
      "Zagło": 536,
      "stwo": 537,
      "kra": 538,
      "chu": 539,
      "Lecz": 540,
      "oj": 541,
      "zd": 542,
      "aż": 543,
      "była": 544,
      "pad": 545,
      "ha": 546,
      "stu": 547,
      "odpowie": 548,
      "rem": 549,
      "ryce": 550,
      "lą": 551,
      "Sz": 552,
      "panie": 553,
      "dził": 554,
      "Pan": 555,
      "pani": 556,
      "cznie": 557,
      "choć": 558,
      "Do": 559,
      "aby": 560,
      "jakby": 561,
      "łowie": 562,
      "każ": 563,
      "żeby": 564,
      "mar": 565,
      "nem": 566,
      "wych": 567,
      "et": 568,
      "czyni": 569,
      "pytał": 570,
      "stał": 571,
      "nas": 572,
      "Te": 573,
      "szę": 574,
      "Prze": 575,
      "ri": 576,
      "między": 577,
      "mog": 578,
      "lecz": 579,
      "szu": 580,
      "mógł": 581,
      "wego": 582,
      "robi": 583,
      "chał": 584,
      "ani": 585,
      "kro": 586,
      "zaraz": 587,
      "Mo": 588,
      "Tu": 589,
      "szko": 590,
      "Ro": 591,
      "bą": 592,
      "poczę": 593,
      "ludzi": 594,
      "człowie": 595,
      "wym": 596,
      "scy": 597,
      "chło": 598,
      "śmy": 599,
      "By": 600,
      "czasem": 601,
      "er": 602,
      "począł": 603,
      "koń": 604,
      "Ba": 605,
      "wały": 606,
      "rzą": 607,
      "Sa": 608,
      "dza": 609,
      "zda": 610,
      "tów": 611,
      "óż": 612,
      "szla": 613,
      "łnie": 614,
      "dzą": 615,
      "tru": 616,
      "Ka": 617,
      "łem": 618,
      "Kmi": 619,
      "głos": 620,
      "którzy": 621,
      "Kmici": 622,
      "kiej": 623,
      "niec": 624,
      "wszystko": 625,
      "gar": 626,
      "ran": 627,
      "Li": 628,
      "woł": 629,
      "gnie": 630,
      "Tak": 631,
      "kry": 632,
      "dzia": 633,
      "zwy": 634,
      "Wokulski": 635,
      "tnie": 636,
      "miło": 637,
      "ałem": 638,
      "cą": 639,
      "ścia": 640,
      "Zagłoba": 641,
      "dni": 642,
      "powia": 643,
      "gra": 644,
      "sku": 645,
      "Ko": 646,
      "obo": 647,
      "żył": 648,
      "których": 649,
      "rzę": 650,
      "przyja": 651,
      "lub": 652,
      "ców": 653,
      "krze": 654,
      "rozu": 655,
      "ój": 656,
      "nąć": 657,
      "stą": 658,
      "Czy": 659,
      "war": 660,
      "łą": 661,
      "ej": 662,
      "ół": 663,
      "ścią": 664,
      "Wie": 665,
      "hu": 666,
      "śmier": 667,
      "stwa": 668,
      "knął": 669,
      "rzał": 670,
      "prowa": 671,
      "miesz": 672,
      "żą": 673,
      "musi": 674,
      "ód": 675,
      "szo": 676,
      "czego": 677,
      "żołnie": 678,
      "nam": 679,
      "mał": 680,
      "wem": 681,
      "kiedy": 682,
      "pły": 683,
      "nęła": 684,
      "Zby": 685,
      "mil": 686,
      "Gdy": 687,
      "bardzo": 688,
      "stęp": 689,
      "gle": 690,
      "pę": 691,
      "podob": 692,
      "więcej": 693,
      "Wołody": 694,
      "Bóg": 695,
      "Wołodyjo": 696,
      "wio": 697,
      "reszcie": 698,
      "mniej": 699,
      "chać": 700,
      "miej": 701,
      "wało": 702,
      "gą": 703,
      "ród": 704,
      "więk": 705,
      "żna": 706,
      "siebie": 707,
      "Wy": 708,
      "szli": 709,
      "drze": 710,
      "ji": 711,
      "przeci": 712,
      "kami": 713,
      "chę": 714,
      "Przy": 715,
      "skich": 716,
      "róż": 717,
      "zno": 718,
      "żeli": 719,
      "nymi": 720,
      "dzieć": 721,
      "Jak": 722,
      "towa": 723,
      "szej": 724,
      "nami": 725,
      "men": 726,
      "Mi": 727,
      "dwa": 728,
      "ciem": 729,
      "zosta": 730,
      "br": 731,
      "parł": 732,
      "pół": 733,
      "tr": 734,
      "dwo": 735,
      "Rze": 736,
      "cały": 737,
      "ręce": 738,
      "chce": 739,
      "mło": 740,
      "daw": 741,
      "eś": 742,
      "kach": 743,
      "poko": 744,
      "spoko": 745,
      "Ni": 746,
      "cę": 747,
      "kon": 748,
      "Wię": 749,
      "potem": 750,
      "prawie": 751,
      "skiej": 752,
      "wido": 753,
      "kapła": 754,
      "rzył": 755,
      "Pe": 756,
      "og": 757,
      "bla": 758,
      "miast": 759,
      "dwie": 760,
      "jdzie": 761,
      "pło": 762,
      "zmie": 763,
      "miejs": 764,
      "dzić": 765,
      "jaki": 766,
      "której": 767,
      "myśli": 768,
      "która": 769,
      "jeden": 770,
      "gdyby": 771,
      "sił": 772,
      "woli": 773,
      "kilka": 774,
      "zawoł": 775,
      "dzień": 776,
      "szych": 777,
      "ciu": 778,
      "jeno": 779,
      "moc": 780,
      "twie": 781,
      "chwy": 782,
      "przeciw": 783,
      "Kmicic": 784,
      "kać": 785,
      "Więc": 786,
      "niż": 787,
      "jeśli": 788,
      "wróci": 789,
      "usta": 790,
      "domu": 791,
      "którym": 792,
      "myślał": 793,
      "No": 794,
      "włas": 795,
      "coraz": 796,
      "nimi": 797,
      "ór": 798,
      "cki": 799,
      "kom": 800,
      "dalej": 801,
      "dem": 802,
      "jem": 803,
      "głowę": 804,
      "rami": 805,
      "waż": 806,
      "osta": 807,
      "nił": 808,
      "wra": 809,
      "patrzy": 810,
      "czyć": 811,
      "ia": 812,
      "ruszy": 813,
      "niech": 814,
      "tar": 815,
      "świę": 816,
      "szcza": 817,
      "nicy": 818,
      "iż": 819,
      "prz": 820,
      "gna": 821,
      "el": 822,
      "ws": 823,
      "puści": 824,
      "odparł": 825,
      "chciał": 826,
      "wszystkich": 827,
      "szlach": 828,
      "zdo": 829,
      "posta": 830,
      "ską": 831,
      "nowi": 832,
      "przecie": 833,
      "kło": 834,
      "!”": 835,
      "coś": 836,
      "wrócił": 837,
      "Wołodyjowski": 838,
      "pom": 839,
      "oko": 840,
      "którego": 841,
      "Niech": 842,
      "były": 843,
      "tedy": 844,
      "kre": 845,
      "dzę": 846,
      "oba": 847,
      "znowu": 848,
      "wal": 849,
      "ofi": 850,
      "godzi": 851,
      "dów": 852,
      "zam": 853,
      "mości": 854,
      "kał": 855,
      "poz": 856,
      "trzyma": 857,
      "mość": 858,
      "gdyż": 859,
      "sobą": 860,
      "wszyscy": 861,
      "tó": 862,
      "kazał": 863,
      "chem": 864,
      "wszystkie": 865,
      "ucie": 866,
      "prę": 867,
      "jące": 868,
      "tłu": 869,
      "znów": 870,
      "śpie": 871,
      "szła": 872,
      "kar": 873,
      "dziew": 874,
      "dnie": 875,
      "odpowiedział": 876,
      "Zbyszko": 877,
      "trzeba": 878,
      "mów": 879,
      "człowiek": 880,
      "dziś": 881,
      "dnia": 882,
      "An": 883,
      "szło": 884,
      "Skrze": 885,
      "szał": 886,
      "piero": 887,
      "dząc": 888,
      "um": 889,
      "Skrzetu": 890,
      "ński": 891,
      "nek": 892,
      "stąpi": 893,
      "żyć": 894,
      "jechał": 895,
      "dobrze": 896,
      "uczyni": 897,
      "działa": 898,
      "świą": 899,
      "drugi": 900,
      "masz": 901,
      "cem": 902,
      "dło": 903,
      "wło": 904,
      "szym": 905,
      "czer": 906,
      "także": 907,
      "ode": 908,
      "dziej": 909,
      "etma": 910,
      "noc": 911,
      "przyjacie": 912,
      "nió": 913,
      "tka": 914,
      "raj": 915,
      "można": 916,
      "kocha": 917,
      "nić": 918,
      "jakie": 919,
      "mam": 920,
      "pięk": 921,
      "Od": 922,
      "zawołał": 923,
      "potę": 924,
      "wam": 925,
      "cji": 926,
      "lepie": 927,
      "szego": 928,
      "szcz": 929,
      "kobie": 930,
      "twarz": 931,
      "zby": 932,
      "pyta": 933,
      "tki": 934,
      "szczy": 935,
      "lep": 936,
      "śród": 937,
      "mój": 938,
      "kr": 939,
      "chorą": 940,
      "niósł": 941,
      "wicz": 942,
      "padł": 943,
      "ludzie": 944,
      "nale": 945,
      "oto": 946,
      "wreszcie": 947,
      "taki": 948,
      "stary": 949,
      "ziemi": 950,
      "odrzekł": 951,
      "niał": 952,
      "woje": 953,
      "rwał": 954,
      "każdy": 955,
      "oni": 956,
      "Krzy": 957,
      "następ": 958,
      "pano": 959,
      "którą": 960,
      "ńca": 961,
      "star": 962,
      "nagle": 963,
      "ówczas": 964,
      "razem": 965,
      "spoj": 966,
      "Da": 967,
      "pozna": 968,
      "hetma": 969,
      "nki": 970,
      "czej": 971,
      "pli": 972,
      "uro": 973,
      "czasu": 974,
      "powiada": 975,
      "zawsze": 976,
      "nicju": 977,
      "chod": 978,
      "króle": 979,
      "Winicju": 980,
      "rzekła": 981,
      "rzo": 982,
      "--": 983,
      "rado": 984,
      "ników": 985,
      "żej": 986,
      "dra": 987,
      "ogro": 988,
      "jcie": 989,
      "nika": 990,
      "głowy": 991,
      "gip": 992,
      "ludz": 993,
      "pierwszy": 994,
      "Tym": 995,
      "Me": 996,
      "dzię": 997,
      "brze": 998,
      "try": 999,
      "pospo": 1000,
      "Wa": 1001,
      "ho": 1002,
      "laz": 1003,
      "spytał": 1004,
      "głę": 1005,
      "”.": 1006,
      "sem": 1007,
      "emu": 1008,
      "pospoli": 1009,
      "gła": 1010,
      "zę": 1011,
      "lił": 1012,
      "cić": 1013,
      "zwie": 1014,
      "ią": 1015,
      "panna": 1016,
      "Cze": 1017,
      "przód": 1018,
      "szep": 1019,
      "fe": 1020,
      "win": 1021,
      "spokoj": 1022,
      "spa": 1023,
      "stało": 1024,
      "słowa": 1025,
      "świat": 1026,
      "tek": 1027,
      "spra": 1028,
      "same": 1029,
      "byli": 1030,
      "panu": 1031,
      "dła": 1032,
      "żem": 1033,
      "zdro": 1034,
      "obe": 1035,
      "czyna": 1036,
      "konie": 1037,
      "Mać": 1038,
      "ciebie": 1039,
      "Już": 1040,
      "ażeby": 1041,
      "ude": 1042,
      "bowiem": 1043,
      "strasz": 1044,
      "wasz": 1045,
      "dr": 1046,
      "chwilę": 1047,
      "Szwe": 1048,
      "pol": 1049,
      "kle": 1050,
      "was": 1051,
      "wój": 1052,
      "pamię": 1053,
      "żu": 1054,
      "nku": 1055,
      "dna": 1056,
      "właśnie": 1057,
      "obie": 1058,
      "woła": 1059,
      "nigdy": 1060,
      "Bogu": 1061,
      "Roz": 1062,
      "stała": 1063,
      "mówić": 1064,
      "tyle": 1065,
      "widział": 1066,
      "drz": 1067,
      "cych": 1068,
      "gów": 1069,
      "rękę": 1070,
      "zbli": 1071,
      "księcia": 1072,
      "bia": 1073,
      "czar": 1074,
      "pró": 1075,
      "trą": 1076,
      "nosi": 1077,
      "licz": 1078,
      "wić": 1079,
      "dli": 1080,
      "dopiero": 1081,
      "puł": 1082,
      "sami": 1083,
      "Pod": 1084,
      "miała": 1085,
      "jedno": 1086,
      "zrobi": 1087,
      "mają": 1088,
      "Mich": 1089,
      "lek": 1090,
      "ST": 1091,
      "Cza": 1092,
      "Że": 1093,
      "jął": 1094,
      "wzią": 1095,
      "Lu": 1096,
      "nach": 1097,
      "kilku": 1098,
      "mą": 1099,
      "dzieli": 1100,
      "póź": 1101,
      "serce": 1102,
      "wska": 1103,
      "dali": 1104,
      "pole": 1105,
      "drugie": 1106,
      "patrz": 1107,
      "Kto": 1108,
      "stoj": 1109,
      "bezpie": 1110,
      "wne": 1111,
      "lepiej": 1112,
      "rzeczy": 1113,
      "Mu": 1114,
      "jących": 1115,
      "głosem": 1116,
      "nka": 1117,
      "cięż": 1118,
      "wiedział": 1119,
      "grze": 1120,
      "sów": 1121,
      "gru": 1122,
      "ol": 1123,
      "tku": 1124,
      "strony": 1125,
      "jeżeli": 1126,
      "gał": 1127,
      "byś": 1128,
      "Tymczasem": 1129,
      "pia": 1130,
      "zupeł": 1131,
      "nikt": 1132,
      "wśród": 1133,
      "klę": 1134,
      "skar": 1135,
      "zabi": 1136,
      "dom": 1137,
      "daj": 1138,
      "towarzy": 1139,
      "On": 1140,
      "bły": 1141,
      "zwał": 1142,
      "całe": 1143,
      "samo": 1144,
      "fara": 1145,
      "chłop": 1146,
      "wskiego": 1147,
      "Kie": 1148,
      "cja": 1149,
      "kli": 1150,
      "głu": 1151,
      "sięcy": 1152,
      "wyda": 1153,
      "lan": 1154,
      "szka": 1155,
      "nocy": 1156,
      "Iza": 1157,
      "uwa": 1158,
      "sio": 1159,
      "dwó": 1160,
      "glą": 1161,
      "Ram": 1162,
      "Ramze": 1163,
      "dej": 1164,
      "ter": 1165,
      "ina": 1166,
      "wielki": 1167,
      "jakiś": 1168,
      "krew": 1169,
      "Izabe": 1170,
      "żał": 1171,
      "skrzy": 1172,
      "ób": 1173,
      "żad": 1174,
      "kamie": 1175,
      "serca": 1176,
      "dosta": 1177,
      "uj": 1178,
      "żd": 1179,
      "swego": 1180,
      "pań": 1181,
      "cier": 1182,
      "król": 1183,
      "rozma": 1184,
      "zbie": 1185,
      "Wszy": 1186,
      "uśmie": 1187,
      "całą": 1188,
      "tąd": 1189,
      "bio": 1190,
      "Może": 1191,
      "widzi": 1192,
      "wier": 1193,
      "pal": 1194,
      "dość": 1195,
      "kla": 1196,
      "isto": 1197,
      "wraca": 1198,
      "for": 1199,
      "widać": 1200,
      "dlatego": 1201,
      "poło": 1202,
      "dzieci": 1203,
      "potrze": 1204,
      "dko": 1205,
      "mną": 1206,
      "wość": 1207,
      "wca": 1208,
      "krzyknął": 1209,
      "gości": 1210,
      "twarzy": 1211,
      "jestem": 1212,
      "Maćko": 1213,
      "sób": 1214,
      "łę": 1215,
      "nęły": 1216,
      "bó": 1217,
      "naprzód": 1218,
      "wości": 1219,
      "mieli": 1220,
      "świad": 1221,
      "życie": 1222,
      "znaj": 1223,
      "Egip": 1224,
      "Chmie": 1225,
      "mieszka": 1226,
      "nieszczę": 1227,
      "Ży": 1228,
      "tysięcy": 1229,
      "wyso": 1230,
      "zja": 1231,
      "sław": 1232,
      "brzy": 1233,
      "lat": 1234,
      "Skrzetuski": 1235,
      "gli": 1236,
      "god": 1237,
      "mały": 1238,
      "nęli": 1239,
      "por": 1240,
      "bardziej": 1241,
      "oka": 1242,
      "zbro": 1243,
      "rok": 1244,
      "dostoj": 1245,
      "duszy": 1246,
      "Jako": 1247,
      "kona": 1248,
      "lnic": 1249,
      "wiek": 1250,
      "wody": 1251,
      "krót": 1252,
      "ląd": 1253,
      "chwila": 1254,
      "długo": 1255,
      "choćby": 1256,
      "Dla": 1257,
      "smu": 1258,
      "Juran": 1259,
      "rycerz": 1260,
      "czyli": 1261,
      "Bi": 1262,
      "mor": 1263,
      "krę": 1264,
      "zale": 1265,
      "mieć": 1266,
      "nością": 1267,
      "kol": 1268,
      "kości": 1269,
      "równie": 1270,
      "ntu": 1271,
      "czne": 1272,
      "ostat": 1273,
      "kój": 1274,
      "Ku": 1275,
      "nieco": 1276,
      "czeka": 1277,
      "chorąg": 1278,
      "My": 1279,
      "wiado": 1280,
      "skim": 1281,
      "trafi": 1282,
      "niko": 1283,
      "czaj": 1284,
      "bił": 1285,
      "świecie": 1286,
      "będę": 1287,
      "rzecz": 1288,
      "wówczas": 1289,
      "chnął": 1290,
      "szły": 1291,
      "głową": 1292,
      "dziwił": 1293,
      "koniec": 1294,
      "koło": 1295,
      "pio": 1296,
      "Dan": 1297,
      "szczo": 1298,
      "czał": 1299,
      "niach": 1300,
      "resztą": 1301,
      "dno": 1302,
      "fu": 1303,
      "moje": 1304,
      "drogę": 1305,
      "milcze": 1306,
      "lnie": 1307,
      "ile": 1308,
      "wiał": 1309,
      "świąty": 1310,
      "Dob": 1311,
      "żało": 1312,
      "dziw": 1313,
      "gły": 1314,
      "ńce": 1315,
      "gach": 1316,
      "Chmielnic": 1317,
      "nt": 1318,
      "rzyć": 1319,
      "Staś": 1320,
      "zdu": 1321,
      "słucha": 1322,
      "trochę": 1323,
      "zbyt": 1324,
      "młody": 1325,
      "cję": 1326,
      "mogła": 1327,
      "służ": 1328,
      "tk": 1329,
      "che": 1330,
      "śmierć": 1331,
      "Winicjusz": 1332,
      "wasza": 1333,
      "zupełnie": 1334,
      "sę": 1335,
      "mod": 1336,
      "snął": 1337,
      "zgo": 1338,
      "mimo": 1339,
      "pre": 1340,
      "sztu": 1341,
      "innych": 1342,
      "pierwsze": 1343,
      "jedzie": 1344,
      "razy": 1345,
      "prawdę": 1346,
      "rozle": 1347,
      "Oto": 1348,
      "io": 1349,
      "nieprzyjacie": 1350,
      "przyj": 1351,
      "dar": 1352,
      "waćpan": 1353,
      "miecz": 1354,
      "goto": 1355,
      "drogi": 1356,
      "ucz": 1357,
      "baro": 1358,
      "pał": 1359,
      "wzię": 1360,
      "cach": 1361,
      "wro": 1362,
      "Boże": 1363,
      "Ksią": 1364,
      "obu": 1365,
      "ziemię": 1366,
      "uda": 1367,
      "cóż": 1368,
      "jeżd": 1369,
      "wil": 1370,
      "bić": 1371,
      "cami": 1372,
      "swoje": 1373,
      "ofice": 1374,
      "zwycię": 1375,
      "jechać": 1376,
      "mru": 1377,
      "nadzie": 1378,
      "groma": 1379,
      "śmierci": 1380,
      "om": 1381,
      "powta": 1382,
      "brał": 1383,
      "He": 1384,
      "dziesię": 1385,
      "sposób": 1386,
      "rodzi": 1387,
      "nowa": 1388,
      "dziesią": 1389,
      "mogę": 1390,
      "Dzi": 1391,
      "powiedział": 1392,
      "wraz": 1393,
      "Tata": 1394,
      "twar": 1395,
      "jas": 1396,
      "Cho": 1397,
      "okru": 1398,
      "oso": 1399,
      "począ": 1400,
      "bło": 1401,
      "troniu": 1402,
      "Petroniu": 1403,
      "Gdzie": 1404,
      "chyba": 1405,
      "lał": 1406,
      "mio": 1407,
      "drodze": 1408,
      "piersi": 1409,
      "dia": 1410,
      "zac": 1411,
      "czach": 1412,
      "będą": 1413,
      "skoń": 1414,
      "takie": 1415,
      "wyż": 1416,
      "Rzeczy": 1417,
      "tach": 1418,
      "taj": 1419,
      "tobie": 1420,
      "ust": 1421,
      "niebo": 1422,
      "szwe": 1423,
      "wojska": 1424,
      "powtó": 1425,
      "drzwi": 1426,
      "wszystkim": 1427,
      "Boga": 1428,
      "dwóch": 1429,
      "nogi": 1430,
      "szwedz": 1431,
      "raź": 1432,
      "robo": 1433,
      "rozmo": 1434,
      "tymczasem": 1435,
      "ple": 1436,
      "później": 1437,
      "pią": 1438,
      "podniósł": 1439,
      "Ha": 1440,
      "kow": 1441,
      "dal": 1442,
      "bła": 1443,
      "Pra": 1444,
      "pisa": 1445,
      "żar": 1446,
      "śro": 1447,
      "póki": 1448,
      "Jest": 1449,
      "albowiem": 1450,
      "razie": 1451,
      "najmniej": 1452,
      "ciągnął": 1453,
      "tać": 1454,
      "temu": 1455,
      "gląd": 1456,
      "nasz": 1457,
      "powo": 1458,
      "swoją": 1459,
      "jedy": 1460,
      "dziec": 1461,
      "jaką": 1462,
      "zwa": 1463,
      "Ody": 1464,
      "…”": 1465,
      "odda": 1466,
      "zapa": 1467,
      "wspo": 1468,
      "zapytał": 1469,
      "takim": 1470,
      "głowie": 1471,
      "bywa": 1472,
      "pił": 1473,
      "giem": 1474,
      "Panie": 1475,
      "Ligi": 1476,
      "widok": 1477,
      "kolwiek": 1478,
      "konia": 1479,
      "ręką": 1480,
      "skó": 1481,
      "śni": 1482,
      "powi": 1483,
      "ceza": 1484,
      "Jeśli": 1485,
      "tere": 1486,
      "LE": 1487,
      "sen": 1488,
      "Bohu": 1489,
      "zoba": 1490,
      "list": 1491,
      "tom": 1492,
      "cząc": 1493,
      "całej": 1494,
      "strzy": 1495,
      "mina": 1496,
      "Nel": 1497,
      "staro": 1498,
      "oczyma": 1499,
      "jednej": 1500,
      "ciaż": 1501,
      "czny": 1502,
      "samy": 1503,
      "tała": 1504,
      "zmar": 1505,
      "łek": 1506,
      "poczęła": 1507,
      "swej": 1508,
      "rać": 1509,
      "życia": 1510,
      "chali": 1511,
      "La": 1512,
      "di": 1513,
      "ńcu": 1514,
      "ojczy": 1515,
      "zaczę": 1516,
      "Be": 1517,
      "knia": 1518,
      "króla": 1519,
      "inni": 1520,
      "puszcza": 1521,
      "rad": 1522,
      "dach": 1523,
      "sach": 1524,
      "trzymał": 1525,
      "rzucił": 1526,
      "góry": 1527,
      "prawdzie": 1528,
      "poczęli": 1529,
      "pusty": 1530,
      "pój": 1531,
      "dwu": 1532,
      "wdzię": 1533,
      "dek": 1534,
      "zwrócił": 1535,
      "wieczo": 1536,
      "boga": 1537,
      "pla": 1538,
      "lin": 1539,
      "żeś": 1540,
      "miłości": 1541,
      "ramiona": 1542,
      "chrze": 1543,
      "myśle": 1544,
      "pospolitej": 1545,
      "inaczej": 1546,
      "ństwo": 1547,
      "śle": 1548,
      "cio": 1549,
      "tami": 1550,
      "ścija": 1551,
      "nęło": 1552,
      "niepo": 1553,
      "siadł": 1554,
      "czuł": 1555,
      "Go": 1556,
      "wach": 1557,
      "szto": 1558,
      "krzyk": 1559,
      "wszel": 1560,
      "łó": 1561,
      "wale": 1562,
      "razu": 1563,
      "czasie": 1564,
      "patrzył": 1565,
      "olbrzy": 1566,
      "Fe": 1567,
      "rego": 1568,
      "rozka": 1569,
      "cąc": 1570,
      "dle": 1571,
      "ek": 1572,
      "łam": 1573,
      "biał": 1574,
      "obro": 1575,
      "wano": 1576,
      "ria": 1577,
      "otwo": 1578,
      "Rzeczypospolitej": 1579,
      "niebie": 1580,
      "wania": 1581,
      "szczęśli": 1582,
      "rowie": 1583,
      "wiesz": 1584,
      "poczęły": 1585,
      "Cóż": 1586,
      "licy": 1587,
      "wami": 1588,
      "miasta": 1589,
      "dzej": 1590,
      "czki": 1591,
      "jeź": 1592,
      "mach": 1593,
      "Jagie": 1594,
      "chodził": 1595,
      "tymi": 1596,
      "potęż": 1597,
      "krwi": 1598,
      "Danu": 1599,
      "iść": 1600,
      "znalaz": 1601,
      "daleko": 1602,
      "moja": 1603,
      "szem": 1604,
      "stanie": 1605,
      "zdra": 1606,
      "niewol": 1607,
      "Mó": 1608,
      "pała": 1609,
      "Fa": 1610,
      "nąwszy": 1611,
      "ręku": 1612,
      "Wszyst": 1613,
      "zaczął": 1614,
      "zgi": 1615,
      "tel": 1616,
      "lud": 1617,
      "pis": 1618,
      "Był": 1619,
      "wielkie": 1620,
      "wojsko": 1621,
      "Teraz": 1622,
      "II": 1623,
      "rał": 1624,
      "rusze": 1625,
      "Ramzes": 1626,
      "mogli": 1627,
      "gry": 1628,
      "dała": 1629,
      "leń": 1630,
      "śla": 1631,
      "leci": 1632,
      "Ot": 1633,
      "ELE": 1634,
      "jesz": 1635,
      "wany": 1636,
      "tysią": 1637,
      "brać": 1638,
      "gać": 1639,
      "dobry": 1640,
      "chrześcija": 1641,
      "spodzie": 1642,
      "wiać": 1643,
      "skiem": 1644,
      "Książę": 1645,
      "cało": 1646,
      "he": 1647,
      "mist": 1648,
      "stronę": 1649,
      "słyszał": 1650,
      "parę": 1651,
      "dodał": 1652,
      "pić": 1653,
      "wziął": 1654,
      "wnie": 1655,
      "szero": 1656,
      "wojny": 1657,
      "stry": 1658,
      "koni": 1659,
      "rzuca": 1660,
      "chcesz": 1661,
      "Czar": 1662,
      "sama": 1663,
      "swoich": 1664,
      "zdy": 1665,
      "wiele": 1666,
      "stwem": 1667,
      "chodzą": 1668,
      "Andrze": 1669,
      "We": 1670,
      "rach": 1671,
      "ciec": 1672,
      "jednym": 1673,
      "Pro": 1674,
      "ego": 1675,
      "stały": 1676,
      "sil": 1677,
      "mienia": 1678,
      "ądź": 1679,
      "----": 1680,
      "pry": 1681,
      "twy": 1682,
      "świ": 1683,
      "dając": 1684,
      "cała": 1685,
      "idzie": 1686,
      "Sam": 1687,
      "ogar": 1688,
      "gorą": 1689,
      "Chry": 1690,
      "puścił": 1691,
      "Kiedy": 1692,
      "rski": 1693,
      "nau": 1694,
      "szyb": 1695,
      "spostrze": 1696,
      "prawda": 1697,
      "Ki": 1698,
      "kole": 1699,
      "dobro": 1700,
      "lle": 1701,
      "chociaż": 1702,
      "taką": 1703,
      "sier": 1704,
      "również": 1705,
      "liśmy": 1706,
      "kowi": 1707,
      "wanie": 1708,
      "Tam": 1709,
      "jaka": 1710,
      "przyszło": 1711,
      "Przez": 1712,
      "człowieka": 1713,
      "pacho": 1714,
      "szak": 1715,
      "skiemu": 1716,
      "zarazem": 1717,
      "Koza": 1718,
      "Ach": 1719,
      "tychmiast": 1720,
      "miłość": 1721,
      "roku": 1722,
      "FI": 1723,
      "grz": 1724,
      "niesie": 1725,
      "rek": 1726,
      "sposo": 1727,
      "został": 1728,
      "dziewczy": 1729,
      "wcale": 1730,
      "nowe": 1731,
      "weso": 1732,
      "najwięk": 1733,
      "żony": 1734,
      "słów": 1735,
      "długi": 1736,
      "ruszył": 1737,
      "ilo": 1738,
      "umie": 1739,
      "ństwa": 1740,
      "głów": 1741,
      "ogrom": 1742,
      "takich": 1743,
      "rozpa": 1744,
      "znać": 1745,
      "ge": 1746,
      "wskiej": 1747,
      "powiedzieć": 1748,
      "szlachci": 1749,
      "prędzej": 1750,
      "zdzi": 1751,
      "gami": 1752,
      "ciągle": 1753,
      "tni": 1754,
      "cieka": 1755,
      "bec": 1756,
      "powiem": 1757,
      "Izabela": 1758,
      "czyła": 1759,
      "mieni": 1760,
      "pil": 1761,
      "widocznie": 1762,
      "głębo": 1763,
      "rząd": 1764,
      "stwie": 1765,
      "siły": 1766,
      "Ne": 1767,
      "dąc": 1768,
      "opie": 1769,
      "rzuci": 1770,
      "Gdyby": 1771,
      "ukry": 1772,
      "górę": 1773,
      "końcu": 1774,
      "pułkow": 1775,
      "wiec": 1776,
      "ME": 1777,
      "połu": 1778,
      "chodzić": 1779,
      "Her": 1780,
      "tery": 1781,
      "biegł": 1782,
      "pomyślał": 1783,
      "złe": 1784,
      "woda": 1785,
      "OF": 1786,
      "wymi": 1787,
      "tobli": 1788,
      "Jan": 1789,
      "trwo": 1790,
      "War": 1791,
      "kły": 1792,
      "oczach": 1793,
      "zać": 1794,
      "żenie": 1795,
      "jedną": 1796,
      "naście": 1797,
      "lić": 1798,
      "miały": 1799,
      "jakim": 1800,
      "swoim": 1801,
      "waszej": 1802,
      "STOF": 1803,
      "ELES": 1804,
      "FISTOF": 1805,
      "MEFISTOF": 1806,
      "MEFISTOFELES": 1807,
      "zem": 1808,
      "koro": 1809,
      "zaję": 1810,
      "Niem": 1811,
      "jednego": 1812,
      "jakoby": 1813,
      "samego": 1814,
      "natychmiast": 1815,
      "cego": 1816,
      "słusz": 1817,
      "świet": 1818,
      "czerwo": 1819,
      "oczu": 1820,
      "sząc": 1821,
      "głoś": 1822,
      "królo": 1823,
      "wnet": 1824,
      "pomo": 1825,
      "Naj": 1826,
      "inne": 1827,
      "Kor": 1828,
      "Słu": 1829,
      "jechali": 1830,
      "dziesiąt": 1831,
      "ratu": 1832,
      "powiadał": 1833,
      "panowie": 1834,
      "obec": 1835,
      "Al": 1836,
      "Mar": 1837,
      "wyszedł": 1838,
      "prosi": 1839,
      "pokoju": 1840,
      "Rozdział": 1841,
      "zła": 1842,
      "wili": 1843,
      "wiej": 1844,
      "dzili": 1845,
      "bój": 1846,
      "ńców": 1847,
      "taka": 1848,
      "przerwał": 1849,
      "mówię": 1850,
      "leź": 1851,
      "miało": 1852,
      "dego": 1853,
      "jda": 1854,
      "nato": 1855,
      "dzenia": 1856,
      "ojciec": 1857,
      "Michał": 1858,
      "chmu": 1859,
      "szere": 1860,
      "rozumie": 1861,
      "wprawdzie": 1862,
      "groź": 1863,
      "miejscu": 1864,
      "Jakoż": 1865,
      "jesteś": 1866,
      "męż": 1867,
      "musiał": 1868,
      "pada": 1869,
      "niejszy": 1870,
      "chów": 1871,
      "chcę": 1872,
      "żegna": 1873,
      "zwi": 1874,
      "kola": 1875,
      "czek": 1876,
      "następnie": 1877,
      "środ": 1878,
      "obok": 1879,
      "otwar": 1880,
      "rąk": 1881,
      "Wokulskiego": 1882,
      "Radziwił": 1883,
      "twier": 1884,
      "prędko": 1885,
      "Ze": 1886,
      "nieść": 1887,
      "komen": 1888,
      "wypra": 1889,
      "łeś": 1890,
      "sercu": 1891,
      "Wtem": 1892,
      "mat": 1893,
      "jutro": 1894,
      "słał": 1895,
      "Petroniusz": 1896,
      "tmo": 1897,
      "chro": 1898,
      "ształ": 1899,
      "rzeć": 1900,
      "gospo": 1901,
      "tan": 1902,
      "remu": 1903,
      "żołnierzy": 1904,
      "poka": 1905,
      "piecho": 1906,
      "ręko": 1907,
      "ogni": 1908,
      "ił": 1909,
      "skał": 1910,
      "Dzie": 1911,
      "nne": 1912,
      "nicz": 1913,
      "rzem": 1914,
      "często": 1915,
      "świątobli": 1916,
      "panem": 1917,
      "wybu": 1918,
      "dam": 1919,
      "Potem": 1920,
      "pochy": 1921,
      "chowa": 1922,
      "spojrzał": 1923,
      "Zy": 1924,
      "dotąd": 1925,
      "kup": 1926,
      "szczęście": 1927,
      "prócz": 1928,
      "łów": 1929,
      "niebezpie": 1930,
      "widzę": 1931,
      "dziedzi": 1932,
      "stru": 1933,
      "com": 1934,
      "per": 1935,
      "ziem": 1936,
      "ofia": 1937,
      "prawo": 1938,
      "każdym": 1939,
      "sprawie": 1940,
      "takiego": 1941,
      "koła": 1942,
      "spod": 1943,
      "swą": 1944,
      "niezmie": 1945,
      "wiecz": 1946,
      "szył": 1947,
      "wód": 1948,
      "pięć": 1949,
      "całym": 1950,
      "cór": 1951,
      "rko": 1952,
      "trza": 1953,
      "właszcza": 1954,
      "jeżdża": 1955,
      ".”": 1956,
      "poli": 1957,
      "lony": 1958,
      "myśla": 1959,
      "Cz": 1960,
      "chle": 1961,
      "jakieś": 1962,
      "lem": 1963,
      "ojca": 1964,
      "one": 1965,
      "poda": 1966,
      "wając": 1967,
      "moż": 1968,
      "rzekłszy": 1969,
      "kraj": 1970,
      "uka": 1971,
      "ńskiego": 1972,
      "krzyw": 1973,
      "padła": 1974,
      "rycer": 1975,
      "Ten": 1976,
      "mąd": 1977,
      "rnie": 1978,
      "mojej": 1979,
      "sro": 1980,
      "sma": 1981,
      "tajem": 1982,
      "kształ": 1983,
      "ksiądz": 1984,
      "tny": 1985,
      "rozkaz": 1986,
      "Kró": 1987,
      "nasze": 1988,
      "kawale": 1989,
      "wielką": 1990,
      "samym": 1991,
      "uczy": 1992,
      "czony": 1993,
      "drugiej": 1994,
      "So": 1995,
      "kogo": 1996,
      "bij": 1997,
      "znalazł": 1998,
      "grzy": 1999,
      "wydo": 2000,
      "cym": 2001,
      "mego": 2002,
      "skoczył": 2003,
      "bem": 2004,
      "przyjdzie": 2005,
      "Tutmo": 2006,
      "Tutmozi": 2007,
      "Pie": 2008,
      "kąd": 2009,
      "opa": 2010,
      "man": 2011,
      "boż": 2012,
      "wąt": 2013,
      "jącym": 2014,
      "Nic": 2015,
      "Czarniec": 2016,
      "swych": 2017,
      "ur": 2018,
      "gor": 2019,
      "mało": 2020,
      "zny": 2021,
      "zgu": 2022,
      "stoi": 2023,
      "zwłaszcza": 2024,
      "poszedł": 2025,
      "kład": 2026,
      "Krzyża": 2027,
      "spokojnie": 2028,
      "prowadził": 2029,
      "istotnie": 2030,
      "faraon": 2031,
      "siła": 2032,
      "Basia": 2033,
      "zamku": 2034,
      "mem": 2035,
      "pierw": 2036,
      "pomoc": 2037,
      "rady": 2038,
      "zaj": 2039,
      "wiedzieć": 2040,
      "łatwo": 2041,
      "żyła": 2042,
      "znaleź": 2043,
      "zdraj": 2044,
      "Ci": 2045,
      "ot": 2046,
      "chcąc": 2047,
      "znak": 2048,
      "pokry": 2049,
      "miest": 2050,
      "ciąż": 2051,
      "Warsza": 2052,
      "imię": 2053,
      "próż": 2054,
      "mili": 2055,
      "wole": 2056,
      "nice": 2057,
      "głosy": 2058,
      "waszmości": 2059,
      "Praw": 2060,
      "Chrystu": 2061,
      "Ket": 2062,
      "usza": 2063,
      "zbu": 2064,
      "byle": 2065,
      "mogło": 2066,
      "intere": 2067,
      "prawdzi": 2068,
      "błę": 2069,
      "ić": 2070,
      "sre": 2071,
      "lach": 2072,
      "panny": 2073,
      "trzymać": 2074,
      "Ketlin": 2075,
      "czka": 2076,
      "rubli": 2077,
      "skła": 2078,
      "kapłan": 2079,
      "chwycił": 2080,
      "kwia": 2081,
      "tne": 2082,
      "wsty": 2083,
      "świata": 2084,
      "AU": 2085,
      "nóg": 2086,
      "wtrą": 2087,
      "wojo": 2088,
      "przej": 2089,
      "mówiła": 2090,
      "wład": 2091,
      "straszli": 2092,
      "Fenic": 2093,
      "chnie": 2094,
      "czci": 2095,
      "poru": 2096,
      "dzieje": 2097,
      "mając": 2098,
      "mogą": 2099,
      "fo": 2100,
      "znał": 2101,
      "kraju": 2102,
      "krótce": 2103,
      "twój": 2104,
      "usz": 2105,
      "pocie": 2106,
      "przyszedł": 2107,
      "nny": 2108,
      "ono": 2109,
      "ocho": 2110,
      "uczu": 2111,
      "zrozu": 2112,
      "zami": 2113,
      "mienie": 2114,
      "cześnie": 2115,
      "uczynił": 2116,
      "ponie": 2117,
      "rował": 2118,
      "kowie": 2119,
      "pozwoli": 2120,
      "szepnął": 2121,
      "widząc": 2122,
      "Eu": 2123,
      "wobec": 2124,
      "przera": 2125,
      "myślę": 2126,
      "stępu": 2127,
      "żołnierz": 2128,
      "hetman": 2129,
      "Dobrze": 2130,
      "Oj": 2131,
      "hra": 2132,
      "swe": 2133,
      "waść": 2134,
      "żywo": 2135,
      "niejsze": 2136,
      "zba": 2137,
      "zamiast": 2138,
      "szuka": 2139,
      "nemu": 2140,
      "przekona": 2141,
      "powtórzył": 2142,
      "Rzy": 2143,
      "wtedy": 2144,
      "cicho": 2145,
      "mieniem": 2146,
      "Chmielnicki": 2147,
      "Trze": 2148,
      "Zda": 2149,
      "rzała": 2150,
      "gorze": 2151,
      "gniew": 2152,
      "stać": 2153,
      "kwa": 2154,
      "ostro": 2155,
      "moim": 2156,
      "innego": 2157,
      "swój": 2158,
      "śmiał": 2159,
      "pali": 2160,
      "cieli": 2161,
      "pytała": 2162,
      "wszedł": 2163,
      "żołnierze": 2164,
      "jakiej": 2165,
      "res": 2166,
      "der": 2167,
      "tęsk": 2168,
      "biały": 2169,
      "FAU": 2170,
      "gwia": 2171,
      "ow": 2172,
      "zwróci": 2173,
      "rzec": 2174,
      "Nagle": 2175,
      "dlaczego": 2176,
      "całkiem": 2177,
      "pełni": 2178,
      "kroć": 2179,
      "Wiel": 2180,
      "Sły": 2181,
      "tol": 2182,
      "chodziło": 2183,
      "wolna": 2184,
      "FAUST": 2185,
      "tna": 2186,
      "ner": 2187,
      "sunął": 2188,
      "gól": 2189,
      "niewia": 2190,
      "natu": 2191,
      "moją": 2192,
      "powtarza": 2193,
      "knie": 2194,
      "rzenia": 2195,
      "wają": 2196,
      "stanął": 2197,
      "gień": 2198,
      "wielkim": 2199,
      "trzą": 2200,
      "zwykle": 2201,
      "wczo": 2202,
      "dowi": 2203,
      "nosił": 2204,
      "chaj": 2205,
      "komna": 2206,
      "zresztą": 2207,
      "słowo": 2208,
      "jącego": 2209,
      "wciąż": 2210,
      "dami": 2211,
      "bogów": 2212,
      "znajo": 2213,
      "skąd": 2214,
      "ściu": 2215,
      "trzeć": 2216,
      "gnął": 2217,
      "ozwał": 2218,
      "kroków": 2219,
      "lata": 2220,
      "będziesz": 2221,
      "dawno": 2222,
      "zapła": 2223,
      "doj": 2224,
      "dobre": 2225,
      "spie": 2226,
      "powa": 2227,
      "ntów": 2228,
      "zni": 2229,
      "chała": 2230,
      "szczą": 2231,
      "Bę": 2232,
      "mią": 2233,
      "tobą": 2234,
      "siedział": 2235,
      "nicę": 2236,
      "blisko": 2237,
      "pewne": 2238,
      "stąpił": 2239,
      "nieba": 2240,
      "wypad": 2241,
      "Si": 2242,
      "mówiąc": 2243,
      "gór": 2244,
      "broni": 2245,
      "niesio": 2246,
      "czną": 2247,
      "poczy": 2248,
      "biera": 2249,
      "wałem": 2250,
      "poprzed": 2251,
      "nikiem": 2252,
      "wese": 2253,
      "glądał": 2254,
      "szybko": 2255,
      "Pi": 2256,
      "dny": 2257,
      "groz": 2258,
      "zapom": 2259,
      "wane": 2260,
      "gię": 2261,
      "pory": 2262,
      "Wszystko": 2263,
      "Któ": 2264,
      "polu": 2265,
      "miesią": 2266,
      "niosła": 2267,
      "swojej": 2268,
      "swym": 2269,
      "ńskich": 2270,
      "cznym": 2271,
      "ber": 2272,
      "syn": 2273,
      "słońce": 2274,
      "Kali": 2275,
      "miłosier": 2276,
      "cierpli": 2277,
      "jakiego": 2278,
      "rękoma": 2279,
      "kwi": 2280,
      "pora": 2281,
      "czenie": 2282,
      "miejsca": 2283,
      "dziła": 2284,
      "żyli": 2285,
      "żal": 2286,
      "okry": 2287,
      "ckie": 2288,
      "ckich": 2289,
      "wich": 2290,
      "wyj": 2291,
      "należy": 2292,
      "Sie": 2293,
      "komi": 2294,
      "wiąza": 2295,
      "rii": 2296,
      "Au": 2297,
      "cje": 2298,
      "niby": 2299,
      "gosła": 2300,
      "zacho": 2301,
      "sce": 2302,
      "posia": 2303,
      "bel": 2304,
      "Zbyszka": 2305,
      "In": 2306,
      "hi": 2307,
      "widzieć": 2308,
      "ledwie": 2309,
      "wielu": 2310,
      "wodę": 2311,
      "spotka": 2312,
      "mek": 2313,
      "księż": 2314,
      "Andrzej": 2315,
      "ckiego": 2316,
      "zapo": 2317,
      "żyje": 2318,
      "życiu": 2319,
      "szab": 2320,
      "sny": 2321,
      "Fenicja": 2322,
      "dne": 2323,
      "dzwo": 2324,
      "zasta": 2325,
      "wieści": 2326,
      "moich": 2327,
      "bogi": 2328,
      "słysze": 2329,
      "Babi": 2330,
      "oby": 2331,
      "odzy": 2332,
      "tko": 2333,
      "żyw": 2334,
      "skę": 2335,
      "liście": 2336,
      "dow": 2337,
      "laty": 2338,
      "mal": 2339,
      "przyjaci": 2340,
      "obaj": 2341,
      "zamk": 2342,
      "dziecko": 2343,
      "Sy": 2344,
      "bów": 2345,
      "dzian": 2346,
      "bom": 2347,
      "ręka": 2348,
      "Chilo": 2349,
      "Oleń": 2350,
      "kru": 2351,
      "sp": 2352,
      "spe": 2353,
      "namiest": 2354,
      "wiedz": 2355,
      "stron": 2356,
      "kapłani": 2357,
      "włosy": 2358,
      "Ru": 2359,
      "Wówczas": 2360,
      "pać": 2361,
      "miesza": 2362,
      "ręki": 2363,
      "Jeżeli": 2364,
      "stym": 2365,
      "wskim": 2366,
      "Mie": 2367,
      "obej": 2368,
      "przyjaciół": 2369,
      "Ge": 2370,
      "ogień": 2371,
      "nade": 2372,
      "cznych": 2373,
      "miasto": 2374,
      "nus": 2375,
      "rycerza": 2376,
      "modli": 2377,
      "Krze": 2378,
      "nien": 2379,
      "takiej": 2380,
      "obra": 2381,
      "Jedna": 2382,
      "robić": 2383,
      "błą": 2384,
      "wolę": 2385,
      "gowie": 2386,
      "lej": 2387,
      "wzro": 2388,
      "wojna": 2389,
      "długie": 2390,
      "spostrzegł": 2391,
      "sprawiedli": 2392,
      "hor": 2393,
      "”,": 2394,
      "niena": 2395,
      "jąć": 2396,
      "pewnie": 2397,
      "pta": 2398,
      "uli": 2399,
      "wszę": 2400,
      "nom": 2401,
      "nowie": 2402,
      "twoje": 2403,
      "Tylko": 2404,
      "wolno": 2405,
      "Zo": 2406,
      "izby": 2407,
      "żenia": 2408,
      "dają": 2409,
      "języ": 2410,
      "księży": 2411,
      "Kmicica": 2412,
      "źnie": 2413,
      "którymi": 2414,
      "Przecie": 2415,
      "szlachta": 2416,
      "chorągwi": 2417,
      "źle": 2418,
      "czem": 2419,
      "ciła": 2420,
      "zaba": 2421,
      "sali": 2422,
      "czone": 2423,
      "kniazi": 2424,
      "myśleć": 2425,
      "Hi": 2426,
      "dało": 2427,
      "waj": 2428,
      "wierz": 2429,
      "mień": 2430,
      "strach": 2431,
      "mogły": 2432,
      "miejsce": 2433,
      "spi": 2434,
      "ukła": 2435,
      "podo": 2436,
      "kan": 2437,
      "Woj": 2438,
      "nagro": 2439,
      "tuż": 2440,
      "spokój": 2441,
      "pójdzie": 2442,
      "patrząc": 2443,
      "miły": 2444,
      "inny": 2445,
      "słysza": 2446,
      "około": 2447,
      "idą": 2448,
      "wście": 2449,
      "dziel": 2450,
      "znajdzie": 2451,
      "siedzi": 2452,
      "dłuż": 2453,
      "fry": 2454,
      "wiła": 2455,
      "rzyła": 2456,
      "panią": 2457,
      "tyka": 2458,
      "Zali": 2459,
      "żaden": 2460,
      "gier": 2461,
      "stępo": 2462,
      "haj": 2463,
      "dziesięć": 2464,
      "Igna": 2465,
      "wyczaj": 2466,
      "Mef": 2467,
      "początku": 2468,
      "powodu": 2469,
      "pola": 2470,
      "wedle": 2471,
      "prost": 2472,
      "stronie": 2473,
      "Sapie": 2474,
      "faraona": 2475,
      "zmę": 2476,
      "stole": 2477,
      "drzewa": 2478,
      "Trzeba": 2479,
      "Spo": 2480,
      "posą": 2481,
      "set": 2482,
      "stej": 2483,
      "nięte": 2484,
      "cno": 2485,
      "tri": 2486,
      "niedo": 2487,
      "byłby": 2488,
      "wielkiego": 2489,
      "Justy": 2490,
      "przecież": 2491,
      "chi": 2492,
      "ciała": 2493,
      "proce": 2494,
      "ster": 2495,
      "Przed": 2496,
      "wiadomo": 2497,
      "Du": 2498,
      "lako": 2499,
      "niami": 2500,
      "Zresztą": 2501,
      "gwał": 2502,
      "óz": 2503,
      "żół": 2504,
      "bole": 2505,
      "słuchał": 2506,
      "zdawało": 2507,
      "brz": 2508,
      "zów": 2509,
      "rzały": 2510,
      "naro": 2511,
      "podej": 2512,
      "przynajmniej": 2513,
      "bara": 2514,
      "podróż": 2515,
      "ti": 2516,
      "włó": 2517,
      "naprawdę": 2518,
      "chcą": 2519,
      "lone": 2520,
      "Jakże": 2521,
      "Rzecki": 2522,
      "zdrowie": 2523,
      "łzy": 2524,
      "kasz": 2525,
      "lubo": 2526,
      "znaczy": 2527,
      "słychać": 2528,
      "samej": 2529,
      "świątyni": 2530,
      "nowił": 2531,
      "mieniu": 2532,
      "przygo": 2533,
      "sej": 2534,
      "błogosła": 2535,
      "bądź": 2536,
      "speł": 2537,
      "tale": 2538,
      "wysła": 2539,
      "czenia": 2540,
      "żona": 2541,
      "Jeszcze": 2542,
      "równa": 2543,
      "siach": 2544,
      "Szwedów": 2545,
      "ist": 2546,
      "wiąz": 2547,
      "kobiety": 2548,
      "Jurand": 2549,
      "hy": 2550,
      "nieraz": 2551,
      "cztery": 2552,
      "potrafi": 2553,
      "rzenie": 2554,
      "kara": 2555,
      "mował": 2556,
      "Nero": 2557,
      "sną": 2558,
      "uf": 2559,
      "wkrótce": 2560,
      "czna": 2561,
      "wieść": 2562,
      "patry": 2563,
      "tować": 2564,
      "szukać": 2565,
      "ota": 2566,
      "zim": 2567,
      "rew": 2568,
      "któremu": 2569,
      "spoglą": 2570,
      "któren": 2571,
      "twarzą": 2572,
      "Pentu": 2573,
      "Bohun": 2574,
      "wtrącił": 2575,
      "wpadł": 2576,
      "rowi": 2577,
      "ciał": 2578,
      "wielka": 2579,
      "niebezpiecze": 2580,
      "Aż": 2581,
      "Kra": 2582,
      "dry": 2583,
      "wrza": 2584,
      "źni": 2585,
      "pogo": 2586,
      "przyczy": 2587,
      "arcy": 2588,
      "drugą": 2589,
      "uczynić": 2590,
      "pierwszej": 2591,
      "dzał": 2592,
      "jakich": 2593,
      "proszę": 2594,
      "okro": 2595,
      "kapłanów": 2596,
      "ńskim": 2597,
      "niezmier": 2598,
      "Prawda": 2599,
      "Każ": 2600,
      "Sło": 2601,
      "Wą": 2602,
      "niemu": 2603,
      "słońca": 2604,
      "Cie": 2605,
      "zakrzyknął": 2606,
      "duszę": 2607,
      "wojnę": 2608,
      "szlachty": 2609,
      "krwa": 2610,
      "mn": 2611,
      "zię": 2612,
      "rzeki": 2613,
      "zach": 2614,
      "dzisz": 2615,
      "trzech": 2616,
      "nikogo": 2617,
      "wni": 2618,
      "dzwyczaj": 2619,
      "leżą": 2620,
      "piec": 2621,
      "możesz": 2622,
      "okrę": 2623,
      "Daj": 2624,
      "Tutmozis": 2625,
      "poch": 2626,
      "przysię": 2627,
      "syna": 2628,
      "Bog": 2629,
      "wódz": 2630,
      "trudno": 2631,
      "us": 2632,
      "wst": 2633,
      "wprost": 2634,
      "poga": 2635,
      "cowi": 2636,
      "Jezu": 2637,
      "krzyki": 2638,
      "powro": 2639,
      "Wreszcie": 2640,
      "raczej": 2641,
      "lada": 2642,
      "słysz": 2643,
      "poznał": 2644,
      "zbliżył": 2645,
      "okrop": 2646,
      "Bu": 2647,
      "nta": 2648,
      "tło": 2649,
      "Łę": 2650,
      "naszych": 2651,
      "posła": 2652,
      "wiście": 2653,
      "szyć": 2654,
      "bierze": 2655,
      "wiatr": 2656,
      "wielkiej": 2657,
      "niony": 2658,
      "zimie": 2659,
      "męża": 2660,
      "odpowiedzi": 2661,
      "chłopa": 2662,
      "odezwał": 2663,
      "bry": 2664,
      "bóg": 2665,
      "nkę": 2666,
      "swa": 2667,
      "tkiem": 2668,
      "nastu": 2669,
      "niała": 2670,
      "wina": 2671,
      "skle": 2672,
      "najwyż": 2673,
      "czoło": 2674,
      "chciała": 2675,
      "zostanie": 2676,
      "godziny": 2677,
      "Ho": 2678,
      "Rzę": 2679,
      "glę": 2680,
      "umy": 2681,
      "zga": 2682,
      "komu": 2683,
      "wana": 2684,
      "mieście": 2685,
      "zer": 2686,
      "Wołodyjowskiego": 2687,
      "Spy": 2688,
      "wnę": 2689,
      "nadzwyczaj": 2690,
      "zanie": 2691,
      "jazd": 2692,
      "mamy": 2693,
      "najlep": 2694,
      "padnie": 2695,
      "Myś": 2696,
      "har": 2697,
      "gotów": 2698,
      "wyro": 2699,
      "przywi": 2700,
      "czele": 2701,
      "pienią": 2702,
      "prosto": 2703,
      "wzgó": 2704,
      "aniżeli": 2705,
      "Było": 2706,
      "wołał": 2707,
      "namio": 2708,
      "zawołała": 2709,
      "błyska": 2710,
      "klaszto": 2711,
      "owe": 2712,
      "tli": 2713,
      "napa": 2714,
      "łaska": 2715,
      "wyraź": 2716,
      "jącą": 2717,
      "ciąga": 2718,
      "jednakże": 2719,
      "Była": 2720,
      "prowadzić": 2721,
      "głośno": 2722,
      "poczyna": 2723,
      "ram": 2724,
      "bami": 2725,
      "ongi": 2726,
      "mówili": 2727,
      "byłem": 2728,
      "sługi": 2729,
      "Jego": 2730,
      "oz": 2731,
      "ńskie": 2732,
      "pomyśl": 2733,
      "dowie": 2734,
      "wien": 2735,
      "muszę": 2736,
      "Nowo": 2737,
      "zdziwie": 2738,
      "Su": 2739,
      "cju": 2740,
      "rsu": 2741,
      "spraw": 2742,
      "zły": 2743,
      "patrzeć": 2744,
      "cześć": 2745,
      "wskich": 2746,
      "odpowiedziała": 2747,
      "drago": 2748,
      "zbroj": 2749,
      "środku": 2750,
      "pów": 2751,
      "chcieli": 2752,
      "czli": 2753,
      "leż": 2754,
      "Szwedzi": 2755,
      "Hele": 2756,
      "Pio": 2757,
      "oca": 2758,
      "znik": 2759,
      "pojedy": 2760,
      "kimi": 2761,
      "cof": 2762,
      "część": 2763,
      "obli": 2764,
      "dzenie": 2765,
      "ktoś": 2766,
      "głębi": 2767,
      "wołać": 2768,
      "Bogusław": 2769,
      "Ona": 2770,
      "tną": 2771,
      "nazy": 2772,
      "kozac": 2773,
      "przer": 2774,
      "szer": 2775,
      "sowi": 2776,
      "częście": 2777,
      "puszcz": 2778,
      "dźmi": 2779,
      "rozum": 2780,
      "waszmość": 2781,
      "cezara": 2782,
      "pog": 2783,
      "zamia": 2784,
      "ruch": 2785,
      "trzeci": 2786,
      "Wiem": 2787,
      "Ła": 2788,
      "nara": 2789,
      "stw": 2790,
      "lito": 2791,
      "starego": 2792,
      "tur": 2793,
      "obraz": 2794,
      "giew": 2795,
      "zostać": 2796,
      "wrócić": 2797,
      "Choć": 2798,
      "mistrz": 2799,
      "wierzy": 2800,
      "czela": 2801,
      "pija": 2802,
      "dużo": 2803,
      "Char": 2804,
      "zio": 2805,
      "strzela": 2806,
      "hań": 2807,
      "czynić": 2808,
      "dzać": 2809,
      "dawna": 2810,
      "mocno": 2811,
      "Winicjusza": 2812,
      "szlachcic": 2813,
      "umiał": 2814,
      "doświad": 2815,
      "przyby": 2816,
      "san": 2817,
      "ludźmi": 2818,
      "głowa": 2819,
      "innym": 2820,
      "żone": 2821,
      "pól": 2822,
      "nieprzyjaciel": 2823,
      "Herhor": 2824,
      "),": 2825,
      "OR": 2826,
      "Pu": 2827,
      "wyciąg": 2828,
      "dusza": 2829,
      "niejsza": 2830,
      "skoro": 2831,
      "mąż": 2832,
      "Jagienka": 2833,
      "dły": 2834,
      "czkę": 2835,
      "stąd": 2836,
      "west": 2837,
      "Pani": 2838,
      "radości": 2839,
      "brzegu": 2840,
      "jakaś": 2841,
      "wesoło": 2842,
      "Czarniecki": 2843,
      "niezna": 2844,
      "rana": 2845,
      "wasze": 2846,
      "tor": 2847,
      "rusza": 2848,
      "pienię": 2849,
      "sława": 2850,
      "krzyża": 2851,
      "wiony": 2852,
      "chorągwie": 2853,
      "Wła": 2854,
      "nko": 2855,
      "czemu": 2856,
      "kana": 2857,
      "proś": 2858,
      "Panna": 2859,
      "ludzkie": 2860,
      "kta": 2861,
      "sprze": 2862,
      "sąd": 2863,
      "umar": 2864,
      "odwa": 2865,
      "oddał": 2866,
      "przyjechał": 2867,
      "Witol": 2868,
      "wojsk": 2869,
      "ognia": 2870,
      "wojewoda": 2871,
      "okrutnie": 2872,
      "Se": 2873,
      "egip": 2874,
      "osa": 2875,
      "wtó": 2876,
      "ścić": 2877,
      "zbliża": 2878,
      "Nowowiej": 2879,
      "ziemia": 2880,
      "drob": 2881,
      "droga": 2882,
      "kała": 2883,
      "uspoko": 2884,
      "żywszy": 2885,
      "znam": 2886,
      "mówią": 2887,
      "wzglę": 2888,
      "milczeniu": 2889,
      "opuści": 2890,
      "łta": 2891,
      "ńczy": 2892,
      "rob": 2893,
      "dował": 2894,
      "lami": 2895,
      "morze": 2896,
      "Skrzetuskiego": 2897,
      "ele": 2898,
      "nków": 2899,
      "pem": 2900,
      "dzier": 2901,
      "ciel": 2902,
      "spot": 2903,
      "stych": 2904,
      "dłużej": 2905,
      "menta": 2906,
      "dostojność": 2907,
      "natomiast": 2908,
      "wczoraj": 2909,
      "Bra": 2910,
      "Ocho": 2911,
      "opowiada": 2912,
      "strzał": 2913,
      "gdyś": 2914,
      "Jam": 2915,
      "podobne": 2916,
      "Rzecz": 2917,
      "drugim": 2918,
      "ciężko": 2919,
      "ponieważ": 2920,
      "owo": 2921,
      "nii": 2922,
      "domo": 2923,
      "miłu": 2924,
      "wyglą": 2925,
      "stan": 2926,
      "syć": 2927,
      "Mości": 2928,
      "mruknął": 2929,
      "szczu": 2930,
      "pozo": 2931,
      "zaczyna": 2932,
      "towi": 2933,
      "stali": 2934,
      "rozko": 2935,
      "brakło": 2936,
      "Kazimie": 2937,
      "błęki": 2938,
      "Hra": 2939,
      "wską": 2940,
      "net": 2941,
      "oddział": 2942,
      "staje": 2943,
      "jutrz": 2944,
      "chodziły": 2945,
      "zrobił": 2946,
      "Ignacy": 2947,
      "psu": 2948,
      "źli": 2949,
      "nazwi": 2950,
      "pochod": 2951,
      "powin": 2952,
      "mać": 2953,
      "prawi": 2954,
      "Nad": 2955,
      "dzony": 2956,
      "szlachet": 2957,
      "zdoby": 2958,
      "wojen": 2959,
      "Dziś": 2960,
      "Szu": 2961,
      "śnia": 2962,
      "cznej": 2963,
      "człek": 2964,
      "skło": 2965,
      "piersiach": 2966,
      "daleka": 2967,
      "rycerzy": 2968,
      "Wszyscy": 2969,
      "przypo": 2970,
      "rej": 2971,
      "podró": 2972,
      "mówisz": 2973,
      "rzawszy": 2974,
      "dobra": 2975,
      "dziesięciu": 2976,
      "tali": 2977,
      "przeto": 2978,
      "ludu": 2979,
      "szar": 2980,
      "słuchać": 2981,
      "książęca": 2982,
      "stąpić": 2983,
      "Michale": 2984,
      "Ligia": 2985,
      "próżno": 2986,
      "pieniądze": 2987,
      "Oni": 2988,
      "łka": 2989,
      "sznie": 2990,
      "rzyły": 2991,
      "siłą": 2992,
      "cer": 2993,
      "czekać": 2994,
      "wrót": 2995,
      "chorągiew": 2996,
      "Żeby": 2997,
      "żadnej": 2998,
      "zaledwie": 2999,
      "kształt": 3000,
      "wojow": 3001,
      "Bar": 3002,
      "Gre": 3003,
      "Kry": 3004,
      "snu": 3005,
      "ciało": 3006,
      "zakon": 3007,
      "jąca": 3008,
      "skry": 3009,
      "trud": 3010,
      "podobny": 3011,
      "drugiego": 3012,
      "poprzednio": 3013,
      "umil": 3014,
      "lite": 3015,
      "każe": 3016,
      "żelaz": 3017,
      "czyło": 3018,
      "skrę": 3019,
      "pyty": 3020,
      "zwyczaj": 3021,
      "słyszawszy": 3022,
      "?”": 3023,
      "Hej": 3024,
      "dniu": 3025,
      "izbie": 3026,
      "naszego": 3027,
      "rom": 3028,
      "przyci": 3029,
      "duje": 3030,
      "krai": 3031,
      "okoli": 3032,
      "Ligii": 3033,
      "Anu": 3034,
      "gni": 3035,
      "ufa": 3036,
      "wny": 3037,
      "ńcy": 3038,
      "jemu": 3039,
      "kowa": 3040,
      "tatar": 3041,
      "boże": 3042,
      "wszech": 3043,
      "prowadzi": 3044,
      "drzwia": 3045,
      "gel": 3046,
      "gon": 3047,
      "cili": 3048,
      "ryj": 3049,
      "czeć": 3050,
      "czap": 3051,
      "czami": 3052,
      "niejszych": 3053,
      "śmiertel": 3054,
      "podobna": 3055,
      "--------": 3056,
      "Ketling": 3057,
      "Azja": 3058,
      "zało": 3059,
      "niespo": 3060,
      "pytać": 3061,
      "rozmai": 3062,
      "Mefres": 3063,
      "lała": 3064,
      "szale": 3065,
      "zatrzy": 3066,
      "dosko": 3067,
      "ban": 3068,
      "puszczo": 3069,
      "Sę": 3070,
      "urzę": 3071,
      "nowy": 3072,
      "odwie": 3073,
      "przestrze": 3074,
      "bili": 3075,
      "przedsta": 3076,
      "zuch": 3077,
      "dworze": 3078,
      "uderzył": 3079,
      "uważa": 3080,
      "wdzięcz": 3081,
      "tysiące": 3082,
      "pilno": 3083,
      "Longi": 3084,
      "okiem": 3085,
      "upły": 3086,
      "niemie": 3087,
      "poja": 3088,
      "kali": 3089,
      "bija": 3090,
      "stop": 3091,
      "wzrok": 3092,
      "Dopiero": 3093,
      "dziano": 3094,
      "własną": 3095,
      "Niechże": 3096,
      "preze": 3097,
      "Pier": 3098,
      "Bogda": 3099,
      "podzi": 3100,
      "nosząc": 3101,
      "przypom": 3102,
      "muje": 3103,
      "stanowi": 3104,
      "wielkich": 3105,
      "broń": 3106,
      "baron": 3107,
      "Wąso": 3108,
      "Czę": 3109,
      "krą": 3110,
      "mała": 3111,
      "smo": 3112,
      "znę": 3113,
      "naszej": 3114,
      "bitwy": 3115,
      "panów": 3116,
      "przede": 3117,
      "praco": 3118,
      "pewien": 3119,
      "Mam": 3120,
      "kościo": 3121,
      "sztur": 3122,
      "Re": 3123,
      "bał": 3124,
      "ubra": 3125,
      "posto": 3126,
      "niku": 3127,
      "leś": 3128,
      "dzieścia": 3129,
      "bit": 3130,
      "słod": 3131,
      "kobieta": 3132,
      "potrzeb": 3133,
      "rozkazu": 3134,
      "pisał": 3135,
      "znaleźć": 3136,
      "Ry": 3137,
      "Wszak": 3138,
      "ata": 3139,
      "niemal": 3140,
      "kor": 3141,
      "koniu": 3142,
      "mis": 3143,
      "wyzna": 3144,
      "przytom": 3145,
      "powietrze": 3146,
      "Pamię": 3147,
      "marszał": 3148,
      "wspani": 3149,
      "dziewczyna": 3150,
      "zaczęła": 3151,
      "Ar": 3152,
      "bru": 3153,
      "zali": 3154,
      "więzie": 3155,
      "części": 3156,
      "Zaraz": 3157,
      "światło": 3158,
      "ostroż": 3159,
      "gla": 3160,
      "ńskiej": 3161,
      "zawi": 3162,
      "trzydzie": 3163,
      "właści": 3164,
      "wóz": 3165,
      "radość": 3166,
      "Musi": 3167,
      "skarb": 3168,
      "MA": 3169,
      "wstrzy": 3170,
      "listy": 3171,
      "wicza": 3172,
      "pach": 3173,
      "odu": 3174,
      "chowie": 3175,
      "syła": 3176,
      "Patrz": 3177,
      "widziałem": 3178,
      "dostać": 3179,
      "forte": 3180,
      "Jednak": 3181,
      "Pru": 3182,
      "jazdy": 3183,
      "bach": 3184,
      "wiali": 3185,
      "ducha": 3186,
      "zielo": 3187,
      "samą": 3188,
      "pewno": 3189,
      "szony": 3190,
      "kilkanaście": 3191,
      "uroczy": 3192,
      "poma": 3193,
      "wez": 3194,
      "pragnie": 3195,
      "prostu": 3196,
      "skać": 3197,
      "księciu": 3198,
      "postać": 3199,
      "sęp": 3200,
      "Odys": 3201,
      "opo": 3202,
      "szów": 3203,
      "byśmy": 3204,
      "daje": 3205,
      "szyję": 3206,
      "prawa": 3207,
      "!…”": 3208,
      "ciągu": 3209,
      "wschod": 3210,
      "zwierzę": 3211,
      "ctwo": 3212,
      "gną": 3213,
      "nnie": 3214,
      "ostrze": 3215,
      "zasło": 3216,
      "tował": 3217,
      "różo": 3218,
      "Cha": 3219,
      "wór": 3220,
      "padli": 3221,
      "ściany": 3222,
      "drzew": 3223,
      "wza": 3224,
      "jeść": 3225,
      "zawie": 3226,
      "zajutrz": 3227,
      "przeba": 3228,
      "mury": 3229,
      "dwadzieścia": 3230,
      "Zyg": 3231,
      "Bie": 3232,
      "wskie": 3233,
      "pożegna": 3234,
      "mować": 3235,
      "Chy": 3236,
      "bliżej": 3237,
      "myślił": 3238,
      "krwią": 3239,
      "poznać": 3240,
      "Będzie": 3241,
      "nowo": 3242,
      "odkry": 3243,
      "zywał": 3244,
      "miałem": 3245,
      "ludziom": 3246,
      "ujrzał": 3247,
      "Egiptu": 3248,
      "mnó": 3249,
      "TA": 3250,
      "kty": 3251,
      "owi": 3252,
      "łał": 3253,
      "niewin": 3254,
      "nat": 3255,
      "podzie": 3256,
      "nica": 3257,
      "rzeź": 3258,
      "wino": 3259,
      "choro": 3260,
      "Powiedz": 3261,
      "szczegól": 3262,
      "uszy": 3263,
      "czyły": 3264,
      "przybra": 3265,
      "musz": 3266,
      "zerwał": 3267,
      "drogą": 3268,
      "myślnie": 3269,
      "rycerze": 3270,
      "białe": 3271,
      "jeźdź": 3272,
      "fra": 3273,
      "rzyło": 3274,
      "dzież": 3275,
      "odrzekła": 3276,
      "mocy": 3277,
      "weź": 3278,
      "jakże": 3279,
      "pór": 3280,
      "mógłby": 3281,
      "dwaj": 3282,
      "ruszyć": 3283,
      "Wasza": 3284,
      "uśmiechem": 3285,
      "ojczyzny": 3286,
      "Czemu": 3287,
      "Babinicz": 3288,
      "nienawi": 3289,
      "Mnie": 3290,
      "ach": 3291,
      "gnąć": 3292,
      "uci": 3293,
      "zji": 3294,
      "śnio": 3295,
      "poży": 3296,
      "poważ": 3297,
      "zatrzymał": 3298,
      "jach": 3299,
      "czekał": 3300,
      "twoja": 3301,
      "strzel": 3302,
      "Tego": 3303,
      "oboje": 3304,
      "zmieni": 3305,
      "dotych": 3306,
      "noszą": 3307,
      "nomar": 3308,
      "bor": 3309,
      "regi": 3310,
      "jegomość": 3311,
      "łego": 3312,
      "gdzieś": 3313,
      "Tuhaj": 3314,
      "postanowił": 3315,
      "państwa": 3316,
      "Bille": 3317,
      "rozległ": 3318,
      "mężczy": 3319,
      "wieczór": 3320,
      "Pentuer": 3321,
      "jno": 3322,
      "kapi": 3323,
      "przyszła": 3324,
      "głem": 3325,
      "Tele": 3326,
      "kończył": 3327,
      "obozu": 3328,
      "Mille": 3329,
      "potrzebu": 3330,
      "nieprzyjaciela": 3331,
      "rozmowę": 3332,
      "\".": 3333,
      "pobli": 3334,
      "tacy": 3335,
      "lum": 3336,
      "pannę": 3337,
      "powiedz": 3338,
      "rzami": 3339,
      "kiedyś": 3340,
      "twiej": 3341,
      "sprawy": 3342,
      "widzisz": 3343,
      "cezar": 3344,
      "fran": 3345,
      "ocze": 3346,
      "ura": 3347,
      "niez": 3348,
      "poboż": 3349,
      "nij": 3350,
      "niczym": 3351,
      "dowo": 3352,
      "kaj": 3353,
      "wola": 3354,
      "wziąć": 3355,
      "Murzy": 3356,
      "cka": 3357,
      "lny": 3358,
      "uży": 3359,
      "napeł": 3360,
      "wypa": 3361,
      "roze": 3362,
      "Stary": 3363,
      "Szlan": 3364,
      "młodego": 3365,
      "dwudzie": 3366,
      "Rzeczpospoli": 3367,
      "Pój": 3368,
      "Stra": 3369,
      "osła": 3370,
      "oświad": 3371,
      "spę": 3372,
      "ule": 3373,
      "moło": 3374,
      "muzy": 3375,
      "zel": 3376,
      "Pola": 3377,
      "suro": 3378,
      "sek": 3379,
      "dźwie": 3380,
      "księżna": 3381,
      "pewny": 3382,
      "Rozu": 3383,
      "święty": 3384,
      "pałacu": 3385,
      "Albo": 3386,
      "gospoda": 3387,
      "!\"": 3388,
      "Mów": 3389,
      "dba": 3390,
      "uważ": 3391,
      "cień": 3392,
      "odga": 3393,
      "boru": 3394,
      "gdybym": 3395,
      "Nawet": 3396,
      "wielce": 3397,
      "jednocześnie": 3398,
      "Izabeli": 3399,
      "Tatarów": 3400,
      "powinien": 3401,
      "lski": 3402,
      "wstał": 3403,
      "pośpie": 3404,
      "para": 3405,
      "dawał": 3406,
      "twarze": 3407,
      "czynił": 3408,
      "dawniej": 3409,
      "dniach": 3410,
      "całego": 3411,
      "złego": 3412,
      "pieniędzy": 3413,
      "Ursu": 3414,
      "brzu": 3415,
      "gba": 3416,
      "wsi": 3417,
      "posu": 3418,
      "leżał": 3419,
      "mowa": 3420,
      "sześć": 3421,
      "Pom": 3422,
      "pełne": 3423,
      "Czech": 3424,
      "pamięta": 3425,
      "Juranda": 3426,
      "błaga": 3427,
      "pomocą": 3428,
      "Zdawało": 3429,
      "kniaziów": 3430,
      "Często": 3431,
      "przyję": 3432,
      "wszystkiego": 3433,
      "ktor": 3434,
      "każdej": 3435,
      "ciemności": 3436,
      "Szlangba": 3437,
      "kuję": 3438,
      "robił": 3439,
      "Aulu": 3440,
      "pogrą": 3441,
      "mgnie": 3442,
      "zał": 3443,
      "posa": 3444,
      "ciły": 3445,
      "jam": 3446,
      "wodą": 3447,
      "bok": 3448,
      "siu": 3449,
      "sar": 3450,
      "Jeden": 3451,
      "końca": 3452,
      "zdaje": 3453,
      "roboty": 3454,
      "Kale": 3455,
      "sno": 3456,
      "Łu": 3457,
      "kape": 3458,
      "wyra": 3459,
      "wością": 3460,
      "jącej": 3461,
      "jeste": 3462,
      "Toż": 3463,
      "obozie": 3464,
      "chwyta": 3465,
      "następca": 3466,
      "jakąś": 3467,
      "am": 3468,
      "łzami": 3469,
      "czam": 3470,
      "siedzą": 3471,
      "siedli": 3472,
      "rzach": 3473,
      "brali": 3474,
      "nięty": 3475,
      "gniewu": 3476,
      "pierwszym": 3477,
      "Oleńka": 3478,
      "gały": 3479,
      "lów": 3480,
      "wszem": 3481,
      "porwał": 3482,
      "paść": 3483,
      "rękach": 3484,
      "wzbu": 3485,
      "dwor": 3486,
      "własne": 3487,
      "olbrzymi": 3488,
      "Kro": 3489,
      "wpół": 3490,
      "zmia": 3491,
      "nin": 3492,
      "rada": 3493,
      "matka": 3494,
      "rój": 3495,
      "przedtem": 3496,
      "zując": 3497,
      "nione": 3498,
      "Widział": 3499,
      "tronu": 3500,
      "Tur": 3501,
      "spać": 3502,
      "rozkazy": 3503,
      "Otóż": 3504,
      "prosić": 3505,
      "dną": 3506,
      "owie": 3507,
      "scho": 3508,
      "nieśli": 3509,
      "niepoko": 3510,
      "rol": 3511,
      "nowej": 3512,
      "odle": 3513,
      "czaro": 3514,
      "prosił": 3515,
      "zęby": 3516,
      "zrobić": 3517,
      "sposobem": 3518,
      "Rzędzian": 3519,
      "Mój": 3520,
      "gwar": 3521,
      "upo": 3522,
      "śka": 3523,
      "nieprzyjaciół": 3524,
      "nasza": 3525,
      "czko": 3526,
      "poro": 3527,
      "zawo": 3528,
      "zawzię": 3529,
      "pami": 3530,
      "przebie": 3531,
      "przezna": 3532,
      "przeszło": 3533,
      "maty": 3534,
      "stara": 3535,
      "życzli": 3536,
      "tłuma": 3537,
      "RO": 3538,
      "jów": 3539,
      "rzch": 3540,
      "niegdyś": 3541,
      "narze": 3542,
      "ponu": 3543,
      "połą": 3544,
      "niczego": 3545,
      "lika": 3546,
      "wiczo": 3547,
      "zamek": 3548,
      "dowa": 3549,
      "dosyć": 3550,
      "wieku": 3551,
      "wyżej": 3552,
      "tea": 3553,
      "cony": 3554,
      "obfi": 3555,
      "?…”": 3556,
      "parła": 3557,
      "dłoń": 3558,
      "Men": 3559,
      "Jestem": 3560,
      "świątobliwości": 3561,
      "niespodzia": 3562,
      "dały": 3563,
      "lne": 3564,
      "boku": 3565,
      "rucho": 3566,
      "los": 3567,
      "nicą": 3568,
      "mej": 3569,
      "fis": 3570,
      "pierwej": 3571,
      "ordy": 3572,
      "dziawszy": 3573,
      "własnej": 3574,
      "okolicy": 3575,
      "nieszczęście": 3576,
      "kaszte": 3577,
      "ctwa": 3578,
      "ńską": 3579,
      "naszym": 3580,
      "potrzeba": 3581,
      "czasy": 3582,
      "Wil": 3583,
      "Stani": 3584,
      "otworzył": 3585,
      "świątobliwość": 3586,
      "han": 3587,
      "łatwiej": 3588,
      "pas": 3589,
      "przykład": 3590,
      "kur": 3591,
      "Następ": 3592,
      "zor": 3593,
      "brat": 3594,
      "brata": 3595,
      "Zagłoby": 3596,
      "tłumy": 3597,
      "pułki": 3598,
      "dwór": 3599,
      "wieczorem": 3600,
      "..": 3601,
      "Gło": 3602,
      "Mem": 3603,
      "tnych": 3604,
      "niecierpli": 3605,
      "nar": 3606,
      "ramię": 3607,
      "zanim": 3608,
      "ren": 3609,
      "bisku": 3610,
      "chory": 3611,
      "niać": 3612,
      "lubi": 3613,
      "miarę": 3614,
      "brak": 3615,
      "okna": 3616,
      "kazała": 3617,
      "brwi": 3618,
      "kłopo": 3619,
      "Tatarzy": 3620,
      "kolana": 3621,
      "sklepu": 3622,
      "ble": 3623,
      "umyślnie": 3624,
      "chra": 3625,
      "ciwszy": 3626,
      "zapewne": 3627,
      "dować": 3628,
      "damy": 3629,
      "czysz": 3630,
      "sić": 3631,
      "cone": 3632,
      "żyły": 3633,
      "Tade": 3634,
      "leciał": 3635,
      "tnym": 3636,
      "zgroma": 3637,
      "szki": 3638,
      "zamy": 3639,
      "zatem": 3640,
      "dala": 3641,
      "bogowie": 3642,
      "gan": 3643,
      "rzucić": 3644,
      "Stach": 3645,
      "chętnie": 3646,
      "Egipt": 3647,
      "wysoko": 3648,
      "Charłam": 3649,
      "dotychczas": 3650,
      "Asy": 3651,
      "Ej": 3652,
      "Owszem": 3653,
      "tały": 3654,
      "trzu": 3655,
      "tio": 3656,
      "rano": 3657,
      "korzy": 3658,
      "piał": 3659,
      "dzone": 3660,
      "wojnie": 3661,
      "Ludzie": 3662,
      "pomocy": 3663,
      "Hiram": 3664,
      "podróży": 3665,
      "Oba": 3666,
      "ckiej": 3667,
      "pokój": 3668,
      "posęp": 3669,
      "sti": 3670,
      "wata": 3671,
      "jaś": 3672,
      "biało": 3673,
      "wiając": 3674,
      "szczerze": 3675,
      "oblę": 3676,
      "głą": 3677,
      "!”.": 3678,
      "pioru": 3679,
      "słyszeć": 3680,
      "przypomina": 3681,
      "mołoj": 3682,
      "hała": 3683,
      "widzieli": 3684,
      "salo": 3685,
      "skro": 3686,
      "beł": 3687,
      "bur": 3688,
      "myślą": 3689,
      "łeb": 3690,
      "Nikt": 3691,
      "zmiesza": 3692,
      "myślisz": 3693,
      "ucieka": 3694,
      "hono": 3695,
      "pójdę": 3696,
      "III": 3697,
      "głęboko": 3698,
      "srebr": 3699,
      "Są": 3700,
      "Zna": 3701,
      "łóż": 3702,
      "ńska": 3703,
      "cznego": 3704,
      "dostał": 3705,
      "wala": 3706,
      "tako": 3707,
      "wychy": 3708,
      "przychodzi": 3709,
      "wzdłuż": 3710,
      "bliż": 3711,
      "szczęścia": 3712,
      "zwykł": 3713,
      "tłum": 3714,
      "Czego": 3715,
      "grozi": 3716,
      "błyskawi": 3717,
      "cją": 3718,
      "wną": 3719,
      "żon": 3720,
      "pogar": 3721,
      "minu": 3722,
      "lasu": 3723,
      "muszą": 3724,
      "stada": 3725,
      "stawał": 3726,
      "rumie": 3727,
      "skały": 3728,
      "byłoby": 3729,
      "Stasia": 3730,
      "okół": 3731,
      "kazało": 3732,
      "powiadać": 3733,
      "żołnier": 3734,
      "Dłu": 3735,
      "Dzię": 3736,
      "śmiało": 3737,
      "cznik": 3738,
      "zachod": 3739,
      "leży": 3740,
      "stołu": 3741,
      "publi": 3742,
      "seł": 3743,
      "strachu": 3744,
      "niom": 3745,
      "wszelako": 3746,
      "padły": 3747,
      "próbo": 3748,
      "fortu": 3749,
      "Chmielnickiego": 3750,
      "Ochocki": 3751,
      "Idry": 3752,
      "Księ": 3753,
      "Skąd": 3754,
      "au": 3755,
      "fan": 3756,
      "sna": 3757,
      "ukazał": 3758,
      "ódł": 3759,
      "Żmu": 3760,
      "niedźwie": 3761,
      "czter": 3762,
      "policz": 3763,
      "winy": 3764,
      "rzyli": 3765,
      "jan": 3766,
      "czywszy": 3767,
      "szek": 3768,
      "stosu": 3769,
      "własnym": 3770,
      "nosić": 3771,
      "miecznik": 3772,
      "rozumiem": 3773,
      "gnę": 3774,
      "Żo": 3775,
      "pojechał": 3776,
      "roka": 3777,
      "kochał": 3778,
      "cisza": 3779,
      "tygo": 3780,
      "odej": 3781,
      "szukał": 3782,
      "wracał": 3783,
      "puścić": 3784,
      "godzin": 3785,
      "kobiet": 3786,
      "rzowi": 3787,
      "majątek": 3788,
      "kilkunastu": 3789,
      "powtarzał": 3790,
      "pustyni": 3791,
      "Korczy": 3792,
      "wściekło": 3793,
      "Zbara": 3794,
      "ogó": 3795,
      "ńcem": 3796,
      "naprzeciw": 3797,
      "poszli": 3798,
      "niały": 3799,
      "odpowiada": 3800,
      "rep": 3801,
      "czasach": 3802,
      "biły": 3803,
      "pracy": 3804,
      "niejszym": 3805,
      "bronić": 3806,
      "młod": 3807,
      "spokoju": 3808,
      "wracając": 3809,
      "ostatni": 3810,
      "przyjść": 3811,
      "uczci": 3812,
      "nadziei": 3813,
      "wieczora": 3814,
      "Ak": 3815,
      "opuścił": 3816,
      "sznu": 3817,
      "zaro": 3818,
      "łaski": 3819,
      "podda": 3820,
      "Jana": 3821,
      "stracił": 3822,
      "stego": 3823,
      "Tygel": 3824,
      "wiczów": 3825,
      "Chyba": 3826,
      "Czu": 3827,
      "waści": 3828,
      "bitwie": 3829,
      "sklepie": 3830,
      "sieni": 3831,
      "suk": 3832,
      "wzrusze": 3833,
      "żąda": 3834,
      "Dlaczego": 3835,
      "wspomnie": 3836,
      "Radziwiłł": 3837,
      "piechoty": 3838,
      "iego": 3839,
      "pocho": 3840,
      "pozosta": 3841,
      "zasłu": 3842,
      "bywał": 3843,
      "wiedząc": 3844,
      "wyraz": 3845,
      "pieśni": 3846,
      "tuje": 3847,
      "jakoś": 3848,
      "wolał": 3849,
      "Pewnie": 3850,
      "godzinę": 3851,
      "państwo": 3852,
      "milczenie": 3853,
      "CH": 3854,
      "ciszy": 3855,
      "zauwa": 3856,
      "kawał": 3857,
      "dech": 3858,
      "innymi": 3859,
      "Chwi": 3860,
      "chwilą": 3861,
      "równo": 3862,
      "mogąc": 3863,
      "Wać": 3864,
      "Ramzesa": 3865,
      "skrzydła": 3866,
      "nnych": 3867,
      "wiecznie": 3868,
      "spoczy": 3869,
      "prasza": 3870,
      "dworu": 3871,
      "nieszczęśli": 3872,
      "Proszę": 3873,
      "częściej": 3874,
      "ZA": 3875,
      "ckim": 3876,
      "fol": 3877,
      "jał": 3878,
      "owa": 3879,
      "znu": 3880,
      "żki": 3881,
      "czały": 3882,
      "stó": 3883,
      "wydał": 3884,
      "tył": 3885,
      "działo": 3886,
      "bawi": 3887,
      "duch": 3888,
      "słyszy": 3889,
      "Raz": 3890,
      "chmur": 3891,
      "komenda": 3892,
      "tęskno": 3893,
      "otu": 3894,
      "widy": 3895,
      "kolo": 3896,
      "cicha": 3897,
      "dopóki": 3898,
      "czasów": 3899,
      "górze": 3900,
      "Mah": 3901,
      "Pary": 3902,
      "Lit": 3903,
      "małego": 3904,
      "Rzekł": 3905,
      "uśmiechnął": 3906,
      "wzrokiem": 3907,
      "stóp": 3908,
      "at": 3909,
      "zbo": 3910,
      "komo": 3911,
      "żebym": 3912,
      "cymi": 3913,
      "biła": 3914,
      "podniosła": 3915,
      "znacznie": 3916,
      "będąc": 3917,
      "Chło": 3918,
      "Tomasz": 3919,
      "straż": 3920,
      "zwycza": 3921,
      "rozumiał": 3922,
      "większa": 3923,
      "młodzi": 3924,
      "polity": 3925,
      "Ce": 3926,
      "zwo": 3927,
      "chą": 3928,
      "pocz": 3929,
      "powoli": 3930,
      "powrót": 3931,
      "zap": 3932,
      "dym": 3933,
      "kieru": 3934,
      "kuje": 3935,
      "służą": 3936,
      "cału": 3937,
      "Ligię": 3938,
      "ramionami": 3939,
      "Danusi": 3940,
      "wszędzie": 3941,
      "schy": 3942,
      "tkę": 3943,
      "śń": 3944,
      "pomiędzy": 3945,
      "rować": 3946,
      "rodza": 3947,
      "gość": 3948,
      "dowód": 3949,
      "wysu": 3950,
      "ryk": 3951,
      "oddać": 3952,
      "przewo": 3953,
      "niejszą": 3954,
      "niejszego": 3955,
      "została": 3956,
      "sercem": 3957,
      "wione": 3958,
      "ment": 3959,
      "szlache": 3960,
      "następcy": 3961,
      "chłopów": 3962,
      "Kiejda": 3963,
      "ból": 3964,
      "oficerów": 3965,
      "wspom": 3966,
      "Justyna": 3967,
      "Bardzo": 3968,
      "Dnie": 3969,
      "Py": 3970,
      "oznaj": 3971,
      "wpły": 3972,
      "chnęła": 3973,
      "wiecze": 3974,
      "wielko": 3975,
      "lar": 3976,
      "przykła": 3977,
      "stano": 3978,
      "cofa": 3979,
      "skra": 3980,
      "dłem": 3981,
      "mer": 3982,
      "ściach": 3983,
      "gałę": 3984,
      "biorą": 3985,
      "starosta": 3986,
      "pachoł": 3987,
      "Każdy": 3988,
      "wzajem": 3989,
      "Ga": 3990,
      "obia": 3991,
      "żka": 3992,
      "naraz": 3993,
      "stem": 3994,
      "stwu": 3995,
      "wisko": 3996,
      "gom": 3997,
      "goni": 3998,
      "mił": 3999,
      "nogami": 4000,
      "malo": 4001,
      "mych": 4002,
      "obję": 4003,
      "jedni": 4004,
      "zuje": 4005,
      "wól": 4006,
      "dzono": 4007,
      "małe": 4008,
      "wemu": 4009,
      "większy": 4010,
      "różnych": 4011,
      "oglą": 4012,
      "ruszyli": 4013,
      "brzeg": 4014,
      "sprawę": 4015,
      "niepokój": 4016,
      "Król": 4017,
      "zrozumiał": 4018,
      "gorzej": 4019,
      "Pó": 4020,
      "lały": 4021,
      "otwie": 4022,
      "utra": 4023,
      "źre": 4024,
      "naszą": 4025,
      "czwar": 4026,
      "porząd": 4027,
      "tanie": 4028,
      "las": 4029,
      "moi": 4030,
      "matki": 4031,
      "czel": 4032,
      "Ależ": 4033,
      "dźwię": 4034,
      "hetmana": 4035,
      "rzony": 4036,
      "służby": 4037,
      "oficer": 4038,
      "hrabi": 4039,
      "Nowowiejski": 4040,
      "De": 4041,
      "oże": 4042,
      "plu": 4043,
      "sne": 4044,
      "lili": 4045,
      "koły": 4046,
      "dostrze": 4047,
      "łożył": 4048,
      "mogłem": 4049,
      "kieli": 4050,
      "łym": 4051,
      "tutaj": 4052,
      "wąwo": 4053,
      "sąsia": 4054,
      "padło": 4055,
      "większe": 4056,
      "rzom": 4057,
      "straszne": 4058,
      "Kir": 4059,
      "nkiem": 4060,
      "pru": 4061,
      "swymi": 4062,
      "cztere": 4063,
      "szel": 4064,
      "cać": 4065,
      "każdego": 4066,
      "Lip": 4067,
      "brała": 4068,
      "radością": 4069,
      "mądro": 4070,
      "natura": 4071,
      "Krzeszo": 4072,
      "otacza": 4073,
      "Żołnie": 4074,
      "Lor": 4075,
      "mro": 4076,
      "nnym": 4077,
      "oświe": 4078,
      "owych": 4079,
      "wki": 4080,
      "nieu": 4081,
      "nań": 4082,
      "koście": 4083,
      "wyciągnął": 4084,
      "nocą": 4085,
      "łych": 4086,
      "milczał": 4087,
      "głupi": 4088,
      "cierpie": 4089,
      "rozmowy": 4090,
      "Warszawy": 4091,
      "namiestnik": 4092,
      "puszczał": 4093,
      "Jednakże": 4094,
      "Lorche": 4095,
      "usi": 4096,
      "pojedzie": 4097,
      "lik": 4098,
      "zamie": 4099,
      "nową": 4100,
      "remi": 4101,
      "podał": 4102,
      "skach": 4103,
      "wzdy": 4104,
      "ciął": 4105,
      "niona": 4106,
      "prawdy": 4107,
      "straszny": 4108,
      "wracać": 4109,
      "trium": 4110,
      "Malbo": 4111,
      "dnio": 4112,
      "udał": 4113,
      "posłu": 4114,
      "rany": 4115,
      "koszto": 4116,
      "rzym": 4117,
      "łach": 4118,
      "nerał": 4119,
      "ryta": 4120,
      "przypatry": 4121,
      "mując": 4122,
      "tura": 4123,
      "ture": 4124,
      "duchu": 4125,
      "Janu": 4126,
      "powietrzu": 4127,
      "łej": 4128,
      "odpowiedź": 4129,
      "człowiekiem": 4130,
      "Miał": 4131,
      "przyjaciel": 4132,
      "chwilami": 4133,
      "nadzieję": 4134,
      "heł": 4135,
      "podoba": 4136,
      "przyczyny": 4137,
      "wstrzą": 4138,
      "Malbor": 4139,
      "nką": 4140,
      "zma": 4141,
      "poprze": 4142,
      "liła": 4143,
      "dokoła": 4144,
      "nowych": 4145,
      "gada": 4146,
      "giel": 4147,
      "złota": 4148,
      "Basi": 4149,
      "oboję": 4150,
      "szowi": 4151,
      "starszy": 4152,
      "Maćka": 4153,
      "żadnego": 4154,
      "położył": 4155,
      "nikomu": 4156,
      "pierwszego": 4157,
      "mnóstwo": 4158,
      "Pompo": 4159,
      "mgnieniu": 4160,
      "Mente": 4161,
      "Bądź": 4162,
      "Sze": 4163,
      "kały": 4164,
      "nkach": 4165,
      "niekiedy": 4166,
      "niewoli": 4167,
      "dole": 4168,
      "doda": 4169,
      "czytał": 4170,
      "przeszedł": 4171,
      "wiary": 4172,
      "czona": 4173,
      "śmiechem": 4174,
      "trop": 4175,
      "twoją": 4176,
      "Nilu": 4177,
      "milczenia": 4178,
      "Tro": 4179,
      "tności": 4180,
      "nał": 4181,
      "waszą": 4182,
      "wyszła": 4183,
      "działy": 4184,
      "ktu": 4185,
      "któż": 4186,
      "biegli": 4187,
      "despe": 4188,
      "prawił": 4189,
      "oble": 4190,
      "powstrzy": 4191,
      "każdą": 4192,
      "blask": 4193,
      "kochany": 4194,
      "światła": 4195,
      "sprawa": 4196,
      "koniecznie": 4197,
      "wicher": 4198,
      "kół": 4199,
      "spytała": 4200,
      "wtem": 4201,
      "zza": 4202,
      "nareszcie": 4203,
      "mian": 4204,
      "wierzyć": 4205,
      "nos": 4206,
      "mowy": 4207,
      "podło": 4208,
      "Chciał": 4209,
      "trzecie": 4210,
      "Masz": 4211,
      "zdoła": 4212,
      "Bohuna": 4213,
      "zobaczył": 4214,
      "niewolników": 4215,
      "szeroko": 4216,
      "Jezus": 4217,
      "Mentezu": 4218,
      "?!": 4219,
      "Ani": 4220,
      "XX": 4221,
      "gnia": 4222,
      "tre": 4223,
      "uwol": 4224,
      "zdą": 4225,
      "pot": 4226,
      "widziała": 4227,
      "tość": 4228,
      "celu": 4229,
      "gam": 4230,
      "ącą": 4231,
      "cudzo": 4232,
      "orsza": 4233,
      "wiono": 4234,
      "większą": 4235,
      "chęć": 4236,
      "siłę": 4237,
      "ustach": 4238,
      "wiadomość": 4239,
      "Chrystusa": 4240,
      "Aposto": 4241,
      "Or": 4242,
      "Wtedy": 4243,
      "spy": 4244,
      "spły": 4245,
      "wcze": 4246,
      "tylu": 4247,
      "przery": 4248,
      "bacz": 4249,
      "niając": 4250,
      "szabla": 4251,
      "deł": 4252,
      "podczas": 4253,
      "lon": 4254,
      "waćpanna": 4255,
      "słowem": 4256,
      "święt": 4257,
      "fun": 4258,
      "muszkie": 4259,
      "Wę": 4260,
      "có": 4261,
      "fał": 4262,
      "oś": 4263,
      "pą": 4264,
      "schro": 4265,
      "wrze": 4266,
      "szczył": 4267,
      "stół": 4268,
      "rachu": 4269,
      "dokąd": 4270,
      "wiecie": 4271,
      "wierzył": 4272,
      "lać": 4273,
      "stam": 4274,
      "alem": 4275,
      "sklep": 4276,
      "siej": 4277,
      "siaj": 4278,
      "mentu": 4279,
      "dwoka": 4280,
      "pisać": 4281,
      "znaleźli": 4282,
      "Chrystus": 4283,
      "kapelu": 4284,
      "fanta": 4285,
      "Dro": 4286,
      "Sza": 4287,
      "Sto": 4288,
      "ak": 4289,
      "żała": 4290,
      "nienia": 4291,
      "napi": 4292,
      "poczu": 4293,
      "pomimo": 4294,
      "kować": 4295,
      "łańcu": 4296,
      "czyn": 4297,
      "musie": 4298,
      "biegła": 4299,
      "sowa": 4300,
      "twojej": 4301,
      "druga": 4302,
      "Starski": 4303,
      "musiała": 4304,
      "bladł": 4305,
      "spokojny": 4306,
      "gotowi": 4307,
      "słusznie": 4308,
      "Spychowa": 4309,
      "opowiadał": 4310,
      "upadł": 4311,
      "mii": 4312,
      "wyma": 4313,
      "nogach": 4314,
      "gali": 4315,
      "lowi": 4316,
      "ściem": 4317,
      "bramy": 4318,
      "myślała": 4319,
      "rzucał": 4320,
      "chodzili": 4321,
      "Rot": 4322,
      "poczęło": 4323,
      "zwykły": 4324,
      "piękny": 4325,
      "Krzysia": 4326,
      "olbrzymie": 4327,
      "Mówił": 4328,
      "królowi": 4329,
      "Przecież": 4330,
      "ózł": 4331,
      "Oczy": 4332,
      "gała": 4333,
      "poza": 4334,
      "pono": 4335,
      "jesta": 4336,
      "zaci": 4337,
      "żeniem": 4338,
      "przyjął": 4339,
      "chodząc": 4340,
      "pannie": 4341,
      "chami": 4342,
      "siem": 4343,
      "obło": 4344,
      "czołem": 4345,
      "góż": 4346,
      "walił": 4347,
      "mieszał": 4348,
      "wrażenie": 4349,
      "baronowa": 4350,
      "grzmo": 4351,
      "Sapieha": 4352,
      "pojedyn": 4353,
      "Zygfry": 4354,
      "Fran": 4355,
      "dka": 4356,
      "chód": 4357,
      "szku": 4358,
      "domów": 4359,
      "wodz": 4360,
      "odet": 4361,
      "bojo": 4362,
      "przyszły": 4363,
      "weł": 4364,
      "bitwa": 4365,
      "burza": 4366,
      "służy": 4367,
      "Wido": 4368,
      "twoim": 4369,
      "głosów": 4370,
      "draż": 4371,
      "jasno": 4372,
      "ratunek": 4373,
      "Inni": 4374,
      "Hrabia": 4375,
      "Longinus": 4376,
      "IA": 4377,
      "blu": 4378,
      "gre": 4379,
      "snęła": 4380,
      "wsta": 4381,
      "mini": 4382,
      "wozy": 4383,
      "dziewię": 4384,
      "pilnie": 4385,
      "Jaki": 4386,
      "służyć": 4387,
      "bracia": 4388,
      "niosły": 4389,
      "Star": 4390,
      "pewnym": 4391,
      "dawnych": 4392,
      "demu": 4393,
      "niechże": 4394,
      "wszelkie": 4395,
      "całował": 4396,
      "pobliżu": 4397,
      "czterech": 4398,
      "afe": 4399,
      "cle": 4400,
      "os": 4401,
      "ogo": 4402,
      "ośmie": 4403,
      "owej": 4404,
      "nierucho": 4405,
      "chó": 4406,
      "człe": 4407,
      "zachwy": 4408,
      "lec": 4409,
      "leka": 4410,
      "lauda": 4411,
      "mon": 4412,
      "boju": 4413,
      "przysią": 4414,
      "jakkolwiek": 4415,
      "siedzieć": 4416,
      "słone": 4417,
      "dzeniu": 4418,
      "chodziła": 4419,
      "Pana": 4420,
      "czarne": 4421,
      "zobaczyć": 4422,
      "niewiasty": 4423,
      "Geb": 4424,
      "wnętrz": 4425,
      "Piotr": 4426,
      "Miller": 4427,
      "dół": 4428,
      "klu": 4429,
      "tność": 4430,
      "Świę": 4431,
      "poty": 4432,
      "liwie": 4433,
      "wyr": 4434,
      "mier": 4435,
      "gdym": 4436,
      "najwięcej": 4437,
      "żoną": 4438,
      "łen": 4439,
      "trzę": 4440,
      "pewna": 4441,
      "ciągnąć": 4442,
      "ojcze": 4443,
      "rząt": 4444,
      "czerwie": 4445,
      "żadnych": 4446,
      "Żydów": 4447,
      "skóry": 4448,
      "Nu": 4449,
      "San": 4450,
      "bod": 4451,
      "her": 4452,
      "idąc": 4453,
      "zra": 4454,
      "leni": 4455,
      "wodzie": 4456,
      "nowego": 4457,
      "majesta": 4458,
      "kuzy": 4459,
      "staj": 4460,
      "zechce": 4461,
      "obszer": 4462,
      "ogniem": 4463,
      "dłonie": 4464,
      "Lud": 4465,
      "błyszczą": 4466,
      "głup": 4467,
      "wszędy": 4468,
      "St": 4469,
      "adwoka": 4470,
      "uszu": 4471,
      "źć": 4472,
      "niewy": 4473,
      "szta": 4474,
      "czała": 4475,
      "pozy": 4476,
      "ałe": 4477,
      "wiedzą": 4478,
      "wycie": 4479,
      "dzisiaj": 4480,
      "pió": 4481,
      "nędz": 4482,
      "Naprzód": 4483,
      "buła": 4484,
      "tent": 4485,
      "Sara": 4486,
      "północ": 4487,
      "ostatnie": 4488,
      "tarł": 4489,
      "śpiewa": 4490,
      "nadzieja": 4491,
      "pochylił": 4492,
      "gorzeli": 4493,
      "talentów": 4494,
      "Sędzia": 4495,
      "Charłamp": 4496,
      "stamtąd": 4497,
      "Dru": 4498,
      "Głu": 4499,
      "utk": 4500,
      "wno": 4501,
      "czce": 4502,
      "cichy": 4503,
      "zatrzyma": 4504,
      "wieki": 4505,
      "toż": 4506,
      "dawać": 4507,
      "czyk": 4508,
      "zebra": 4509,
      "spotk": 4510,
      "żalu": 4511,
      "dobrego": 4512,
      "Tauro": 4513,
      "tamtej": 4514,
      "wielmoż": 4515,
      "gęst": 4516,
      "książęcej": 4517,
      "dźcie": 4518,
      "Podbi": 4519,
      "świątyń": 4520,
      "wspomina": 4521,
      "pozwolił": 4522,
      "zdziwieniem": 4523,
      "Łub": 4524,
      "ogóle": 4525,
      "dnej": 4526,
      "dniem": 4527,
      "zje": 4528,
      "zry": 4529,
      "żały": 4530,
      "naokół": 4531,
      "telu": 4532,
      "przeszko": 4533,
      "przyro": 4534,
      "przywy": 4535,
      "lona": 4536,
      "równi": 4537,
      "będziem": 4538,
      "pewnego": 4539,
      "pewnością": 4540,
      "patrzyć": 4541,
      "patrzyli": 4542,
      "godny": 4543,
      "fur": 4544,
      "doskonale": 4545,
      "Kon": 4546,
      "Pię": 4547,
      "bł": 4548,
      "dki": 4549,
      "ost": 4550,
      "okrzy": 4551,
      "twego": 4552,
      "ucha": 4553,
      "wów": 4554,
      "odź": 4555,
      "lau": 4556,
      "innej": 4557,
      "pierś": 4558,
      "Kamie": 4559,
      "grani": 4560,
      "różne": 4561,
      "blasku": 4562,
      "mocniej": 4563,
      "kawaler": 4564,
      "Który": 4565,
      "gwałto": 4566,
      "Myśl": 4567,
      "ER": 4568,
      "abym": 4569,
      "bór": 4570,
      "histo": 4571,
      "oku": 4572,
      "ptak": 4573,
      "śpi": 4574,
      "kot": 4575,
      "zakry": 4576,
      "wypyty": 4577,
      "manie": 4578,
      "spoglądał": 4579,
      "Zaś": 4580,
      "lot": 4581,
      "czonych": 4582,
      "Marusze": 4583,
      "płomień": 4584,
      "oficerowie": 4585,
      "osob": 4586,
      "ojczyźnie": 4587,
      "spodziewał": 4588,
      "grzbie": 4589,
      "dziewczyny": 4590,
      "rzuciła": 4591,
      "gospodar": 4592,
      "Podbipię": 4593,
      "Sar": 4594,
      "oli": 4595,
      "rwo": 4596,
      "ukło": 4597,
      "naka": 4598,
      "napełni": 4599,
      "zar": 4600,
      "tyłu": 4601,
      "weszli": 4602,
      "deszcz": 4603,
      "chając": 4604,
      "obja": 4605,
      "braci": 4606,
      "Widzę": 4607,
      "kulba": 4608,
      "złowro": 4609,
      "współ": 4610,
      "pamięć": 4611,
      "pamięci": 4612,
      "Właśnie": 4613,
      "oczeki": 4614,
      "Zgorzeli": 4615,
      "sał": 4616,
      "uniesie": 4617,
      "zała": 4618,
      "Ża": 4619,
      "rzało": 4620,
      "poświę": 4621,
      "wiała": 4622,
      "zawa": 4623,
      "dosię": 4624,
      "waniu": 4625,
      "wyją": 4626,
      "pies": 4627,
      "wielbłą": 4628,
      "myślałem": 4629,
      "party": 4630,
      "zdrów": 4631,
      "padały": 4632,
      "wspól": 4633,
      "klęski": 4634,
      "uwagę": 4635,
      "Dlatego": 4636,
      "począć": 4637,
      "Wszystkie": 4638,
      "Warszawie": 4639,
      "komnaty": 4640,
      "miesiąc": 4641,
      "czterdzie": 4642,
      "Tygelli": 4643,
      "Ob": 4644,
      "ksan": 4645,
      "usłyszał": 4646,
      "racji": 4647,
      "rzeli": 4648,
      "dotk": 4649,
      "lenia": 4650,
      "waszych": 4651,
      "łaskę": 4652,
      "wycię": 4653,
      "wyjechał": 4654,
      "wodza": 4655,
      "dzikich": 4656,
      "przybył": 4657,
      "char": 4658,
      "Ponie": 4659,
      "Powia": 4660,
      "chłopi": 4661,
      "czegoś": 4662,
      "Mikoła": 4663,
      "wojewody": 4664,
      "jeżdżał": 4665,
      "Mówi": 4666,
      "południe": 4667,
      "Niemców": 4668,
      "wtóre": 4669,
      "drzwiach": 4670,
      "Lin": 4671,
      "Twa": 4672,
      "fy": 4673,
      "ony": 4674,
      "ulicy": 4675,
      "zmy": 4676,
      "zgrzy": 4677,
      "chła": 4678,
      "niła": 4679,
      "niów": 4680,
      "rając": 4681,
      "radę": 4682,
      "zabie": 4683,
      "bywało": 4684,
      "wiedziała": 4685,
      "macie": 4686,
      "wek": 4687,
      "pust": 4688,
      "będziemy": 4689,
      "dźwi": 4690,
      "huk": 4691,
      "śmiercią": 4692,
      "królewskiej": 4693,
      "samych": 4694,
      "mistrza": 4695,
      "Wąsowska": 4696,
      "Pło": 4697,
      "Wró": 4698,
      "cką": 4699,
      "fal": 4700,
      "uści": 4701,
      "zą": 4702,
      "złu": 4703,
      "nieprze": 4704,
      "poto": 4705,
      "jeńców": 4706,
      "zapytała": 4707,
      "wawszy": 4708,
      "wiedzieli": 4709,
      "wysta": 4710,
      "jadą": 4711,
      "dzisiej": 4712,
      "cel": 4713,
      "ścił": 4714,
      "ścian": 4715,
      "bite": 4716,
      "rozpo": 4717,
      "podnosi": 4718,
      "Niektórzy": 4719,
      "żać": 4720,
      "głe": 4721,
      "inną": 4722,
      "Miło": 4723,
      "dwoma": 4724,
      "płoną": 4725,
      "ostate": 4726,
      "pytanie": 4727,
      "szepnęła": 4728,
      "słuszność": 4729,
      "krzywdy": 4730,
      "sprzę": 4731,
      "wygląda": 4732,
      "cudzoziem": 4733,
      "brzę": 4734,
      "jże": 4735,
      "udział": 4736,
      "wka": 4737,
      "nasy": 4738,
      "nazajutrz": 4739,
      "szała": 4740,
      "poku": 4741,
      "poszła": 4742,
      "rzeka": 4743,
      "dowiedział": 4744,
      "waru": 4745,
      "rozpro": 4746,
      "gając": 4747,
      "pili": 4748,
      "panną": 4749,
      "bej": 4750,
      "szczegó": 4751,
      "subie": 4752,
      "Chce": 4753,
      "księciem": 4754,
      "ciągnie": 4755,
      "zdawał": 4756,
      "postaci": 4757,
      "Egipcja": 4758,
      "służba": 4759,
      "nieboszczy": 4760,
      "Bene": 4761,
      "Mię": 4762,
      "ową": 4763,
      "sprowa": 4764,
      "spół": 4765,
      "tków": 4766,
      "uczuł": 4767,
      "śmia": 4768,
      "rali": 4769,
      "zabrał": 4770,
      "żela": 4771,
      "tości": 4772,
      "kupić": 4773,
      "chach": 4774,
      "progu": 4775,
      "wróż": 4776,
      "Jutro": 4777,
      "rajta": 4778,
      "królem": 4779,
      "kamień": 4780,
      "uśmiech": 4781,
      "Kozacy": 4782,
      "stępuje": 4783,
      "przygotowa": 4784,
      "słyszałem": 4785,
      "Bogdańca": 4786,
      "Osta": 4787,
      "odzie": 4788,
      "okrzyki": 4789,
      "ślub": 4790,
      "pogrze": 4791,
      "rację": 4792,
      "wiska": 4793,
      "wor": 4794,
      "woły": 4795,
      "dziły": 4796,
      "gają": 4797,
      "chaty": 4798,
      "Zamo": 4799,
      "łez": 4800,
      "słem": 4801,
      "gniewem": 4802,
      "podobno": 4803,
      "różno": 4804,
      "Czasem": 4805,
      "zaczęli": 4806,
      "puszczać": 4807,
      "szeregi": 4808,
      "reptio": 4809,
      "Mentezufis": 4810,
      "lta": 4811,
      "nną": 4812,
      "oży": 4813,
      "urzą": 4814,
      "znie": 4815,
      "szty": 4816,
      "domy": 4817,
      "gadać": 4818,
      "Nastała": 4819,
      "dobrą": 4820,
      "wzru": 4821,
      "najlepiej": 4822,
      "miar": 4823,
      "Aleksan": 4824,
      "chciałem": 4825,
      "Noc": 4826,
      "własnych": 4827,
      "zdołał": 4828,
      "dłoni": 4829,
      "Krzywo": 4830,
      "Bogusława": 4831,
      "dostanie": 4832,
      "potrzebo": 4833,
      "zgoła": 4834,
      "białą": 4835,
      "ratunku": 4836,
      "wypadek": 4837,
      "jancza": 4838,
      "vel": 4839,
      "naród": 4840,
      "naczel": 4841,
      "czką": 4842,
      "poły": 4843,
      "wiod": 4844,
      "lewo": 4845,
      "wanym": 4846,
      "kap": 4847,
      "wydało": 4848,
      "dano": 4849,
      "ciele": 4850,
      "odpoczy": 4851,
      "boi": 4852,
      "boki": 4853,
      "boży": 4854,
      "biegły": 4855,
      "czać": 4856,
      "bije": 4857,
      "biło": 4858,
      "Zako": 4859,
      "sławie": 4860,
      "podobnych": 4861,
      "Nigdy": 4862,
      "Anzel": 4863,
      "stąpiła": 4864,
      "lekty": 4865,
      "wiadomości": 4866,
      "skończył": 4867,
      "gwiazdy": 4868,
      "zapomniał": 4869,
      "chłopak": 4870,
      "oblicze": 4871,
      "przypomniał": 4872,
      "Idrys": 4873,
      "ener": 4874,
      "nóż": 4875,
      "okie": 4876,
      "owym": 4877,
      "spło": 4878,
      "nasi": 4879,
      "wiu": 4880,
      "doszedł": 4881,
      "wysłał": 4882,
      "boja": 4883,
      "kule": 4884,
      "czeniu": 4885,
      "pur": 4886,
      "figu": 4887,
      "ciągną": 4888,
      "ojco": 4889,
      "Libij": 4890,
      "Wiesz": 4891,
      "młodzień": 4892,
      "uciekać": 4893,
      "uderza": 4894,
      "Egipcie": 4895,
      "osobli": 4896,
      "Kozaków": 4897,
      "bogini": 4898,
      "jeźdźców": 4899,
      "Rzeczpospolita": 4900,
      "Kt": 4901,
      "Ser": 4902,
      "Zie": 4903,
      "cku": 4904,
      "lną": 4905,
      "opano": 4906,
      "snąć": 4907,
      "ństwem": 4908,
      "poża": 4909,
      "kolum": 4910,
      "ciałem": 4911,
      "zapew": 4912,
      "tonem": 4913,
      "kupy": 4914,
      "dują": 4915,
      "żadna": 4916,
      "najprędzej": 4917,
      "czono": 4918,
      "Taki": 4919,
      "nadto": 4920,
      "twoich": 4921,
      "klejno": 4922,
      "wołali": 4923,
      "późno": 4924,
      "Danvel": 4925,
      "pójść": 4926,
      "Korde": 4927,
      "pięćdziesiąt": 4928,
      "wstyd": 4929,
      "Eury": 4930,
      "Szlangbaum": 4931,
      "Któż": 4932,
      "Ber": 4933,
      "Hu": 4934,
      "Ró": 4935,
      "lnym": 4936,
      "ołta": 4937,
      "wskiemu": 4938,
      "niektórzy": 4939,
      "potra": 4940,
      "poczci": 4941,
      "wienie": 4942,
      "wygląd": 4943,
      "cenia": 4944,
      "murów": 4945,
      "biry": 4946,
      "rozbu": 4947,
      "dusz": 4948,
      "Pol": 4949,
      "powiedziała": 4950,
      "Wiśnio": 4951,
      "pięciu": 4952,
      "każda": 4953,
      "krotnie": 4954,
      "płynie": 4955,
      "Sopli": 4956,
      "białych": 4957,
      "musieli": 4958,
      "Flo": 4959,
      "iv": 4960,
      "niegdzie": 4961,
      "rak": 4962,
      "radzi": 4963,
      "miu": 4964,
      "wienia": 4965,
      "wyglądał": 4966,
      "lam": 4967,
      "lasy": 4968,
      "boska": 4969,
      "pieśń": 4970,
      "bity": 4971,
      "rób": 4972,
      "roztrop": 4973,
      "sków": 4974,
      "buj": 4975,
      "stronach": 4976,
      "złote": 4977,
      "szono": 4978,
      "szone": 4979,
      "mniejsza": 4980,
      "północy": 4981,
      "znajduje": 4982,
      "ostatnich": 4983,
      "zginąć": 4984,
      "zauważył": 4985,
      "Między": 4986,
      "Gusta": 4987,
      "dnych": 4988,
      "obywa": 4989,
      "pały": 4990,
      "psy": 4991,
      "tchu": 4992,
      "wnicy": 4993,
      "ńscy": 4994,
      "polo": 4995,
      "pozostał": 4996,
      "jechała": 4997,
      "zago": 4998,
      "doro": 4999,
      "żeni": 5000,
      "padał": 5001,
      "tydzień": 5002,
      "odparła": 5003,
      "majda": 5004,
      "szele": 5005,
      "prosta": 5006,
      "trzymy": 5007,
      "Jedno": 5008,
      "Toteż": 5009,
      "ojcu": 5010,
      "hau": 5011,
      "mart": 5012,
      "konfe": 5013,
      "wrócili": 5014,
      "przod": 5015,
      "walki": 5016,
      "godzina": 5017,
      "chodź": 5018,
      "rzeczywiście": 5019,
      "zdumieniem": 5020,
      "zaczęły": 5021,
      "miłościwy": 5022,
      "szczęśliwy": 5023,
      "długim": 5024,
      "otwarte": 5025,
      "wątpli": 5026,
      "kancle": 5027,
      "lka": 5028,
      "pch": 5029,
      "nać": 5030,
      "porę": 5031,
      "pomó": 5032,
      "rzeniem": 5033,
      "liwszy": 5034,
      "przestał": 5035,
      "przeraź": 5036,
      "szyi": 5037,
      "mami": 5038,
      "przyjem": 5039,
      "bieda": 5040,
      "pracu": 5041,
      "znasz": 5042,
      "Nieraz": 5043,
      "sied": 5044,
      "duży": 5045,
      "senato": 5046,
      "wznosi": 5047,
      "sług": 5048,
      "Wia": 5049,
      "Wokulskiemu": 5050,
      "jącymi": 5051,
      "kilkadziesiąt": 5052,
      "kręcił": 5053,
      "zwycięstwo": 5054,
      "Bez": 5055,
      "czerwone": 5056,
      "Najświęt": 5057,
      "wyraźnie": 5058,
      "spotkać": 5059,
      "Anusia": 5060,
      "francu": 5061,
      "wnątrz": 5062,
      "purpu": 5063,
      "drew": 5064,
      "nce": 5065,
      "uła": 5066,
      "usiadł": 5067,
      "ślu": 5068,
      "żąd": 5069,
      "kochać": 5070,
      "zacie": 5071,
      "zasła": 5072,
      "zamyślił": 5073,
      "nozd": 5074,
      "czych": 5075,
      "czytać": 5076,
      "przeszka": 5077,
      "mym": 5078,
      "kłę": 5079,
      "skała": 5080,
      "duszą": 5081,
      "bun": 5082,
      "żonę": 5083,
      "Tatar": 5084,
      "ziar": 5085,
      "bronił": 5086,
      "krokiem": 5087,
      "Gdybym": 5088,
      "piękne": 5089,
      "lekko": 5090,
      "ciężkie": 5091,
      "zabił": 5092,
      "szwedzkie": 5093,
      "Radziwiłła": 5094,
      "urzędni": 5095,
      "Telemach": 5096,
      "Ursus": 5097,
      "niespodzianie": 5098,
      "Chwilami": 5099,
      "Ukrai": 5100,
      "owego": 5101,
      "ul": 5102,
      "wna": 5103,
      "zwło": 5104,
      "pokło": 5105,
      "potrzą": 5106,
      "zaga": 5107,
      "zasy": 5108,
      "mić": 5109,
      "jazda": 5110,
      "nowu": 5111,
      "przestra": 5112,
      "szymi": 5113,
      "czom": 5114,
      "orszak": 5115,
      "Stawska": 5116,
      "Rozło": 5117,
      "pozwole": 5118,
      "włosów": 5119,
      "piękna": 5120,
      "Mene": 5121,
      "rozmawiać": 5122,
      "wilgo": 5123,
      "jeździe": 5124,
      "całować": 5125,
      "Rzymie": 5126,
      "robię": 5127,
      "Akte": 5128,
      "Dale": 5129,
      "drę": 5130,
      "dnym": 5131,
      "oszczę": 5132,
      "osób": 5133,
      "snym": 5134,
      "uło": 5135,
      "usa": 5136,
      "śnię": 5137,
      "chwał": 5138,
      "pomy": 5139,
      "powszech": 5140,
      "racze": 5141,
      "rodu": 5142,
      "lew": 5143,
      "pary": 5144,
      "dymu": 5145,
      "pragnął": 5146,
      "kłó": 5147,
      "mówiono": 5148,
      "żono": 5149,
      "czoną": 5150,
      "płaszcz": 5151,
      "dźmy": 5152,
      "wargi": 5153,
      "małżon": 5154,
      "chcecie": 5155,
      "Zbyszkowi": 5156,
      "ludzkich": 5157,
      "obiecał": 5158,
      "zabija": 5159,
      "gromady": 5160,
      "ogromne": 5161,
      "wydobył": 5162,
      "ozwały": 5163,
      "niechaj": 5164,
      "pos": 5165,
      "ron": 5166,
      "wiły": 5167,
      "zado": 5168,
      "zasa": 5169,
      "woź": 5170,
      "wozów": 5171,
      "przepa": 5172,
      "boję": 5173,
      "boha": 5174,
      "dusze": 5175,
      "pełen": 5176,
      "pusto": 5177,
      "niejsi": 5178,
      "wszystkimi": 5179,
      "gęsto": 5180,
      "księdza": 5181,
      "Kur": 5182,
      "diabeł": 5183,
      "kolei": 5184,
      "owdzie": 5185,
      "posiada": 5186,
      "Następnie": 5187,
      "Trzy": 5188,
      "gr": 5189,
      "knąć": 5190,
      "oce": 5191,
      "potwo": 5192,
      "koryta": 5193,
      "ciło": 5194,
      "zaw": 5195,
      "żek": 5196,
      "pania": 5197,
      "wyja": 5198,
      "dziło": 5199,
      "czyta": 5200,
      "morza": 5201,
      "głowami": 5202,
      "szabli": 5203,
      "delika": 5204,
      "loną": 5205,
      "złoto": 5206,
      "Zagłobę": 5207,
      "Byli": 5208,
      "Kowal": 5209,
      "krzesła": 5210,
      "podobnego": 5211,
      "Angli": 5212,
      "słuchaj": 5213,
      "stryj": 5214,
      "południo": 5215,
      "jakimś": 5216,
      "jakiegoś": 5217,
      "szablą": 5218,
      "zamknię": 5219,
      "względem": 5220,
      "Memfi": 5221,
      "Długo": 5222,
      "Znowu": 5223,
      "drą": 5224,
      "hry": 5225,
      "hoj": 5226,
      "okaz": 5227,
      "oszu": 5228,
      "usie": 5229,
      "żąc": 5230,
      "stia": 5231,
      "wystar": 5232,
      "stanęli": 5233,
      "zywać": 5234,
      "niosło": 5235,
      "wojskiem": 5236,
      "Ledwie": 5237,
      "Stawskiej": 5238,
      "ktora": 5239,
      "!”,": 5240,
      "słowach": 5241,
      "liczne": 5242,
      "obrony": 5243,
      "sposob": 5244,
      "waszmościowie": 5245,
      "słyszeli": 5246,
      "powrotem": 5247,
      "Kazimierz": 5248,
      "trzydzieści": 5249,
      "weźmie": 5250,
      "czambu": 5251,
      "Zło": 5252,
      "are": 5253,
      "lnych": 5254,
      "nnej": 5255,
      "oczami": 5256,
      "psa": 5257,
      "niewiele": 5258,
      "czni": 5259,
      "zamiesz": 5260,
      "doku": 5261,
      "migo": 5262,
      "wyszli": 5263,
      "dziwne": 5264,
      "piej": 5265,
      "pież": 5266,
      "żyło": 5267,
      "szabel": 5268,
      "podnosząc": 5269,
      "stoją": 5270,
      "skając": 5271,
      "waćpana": 5272,
      "inna": 5273,
      "pierście": 5274,
      "siadła": 5275,
      "samemu": 5276,
      "drudzy": 5277,
      "okrą": 5278,
      "rią": 5279,
      "gardło": 5280,
      "pytania": 5281,
      "mieczem": 5282,
      "Ksiądz": 5283,
      "Soroka": 5284,
      "pierwsza": 5285,
      "zdrajca": 5286,
      "Wielki": 5287,
      "wstrę": 5288,
      "spotkał": 5289,
      "Rozumie": 5290,
      "Tadeusz": 5291,
      "Mracze": 5292,
      "Sma": 5293,
      "Wnet": 5294,
      "wców": 5295,
      "niedaleko": 5296,
      "niedawno": 5297,
      "chrz": 5298,
      "rzeń": 5299,
      "koł": 5300,
      "każę": 5301,
      "wierzę": 5302,
      "tana": 5303,
      "ruchu": 5304,
      "róg": 5305,
      "stol": 5306,
      "duże": 5307,
      "puszcze": 5308,
      "wojsku": 5309,
      "resztę": 5310,
      "dziłem": 5311,
      "Dość": 5312,
      "większej": 5313,
      "uciekł": 5314,
      "umrzeć": 5315,
      "Petroniusza": 5316,
      "dziecka": 5317,
      "chmury": 5318,
      "ofiary": 5319,
      "powtarzać": 5320,
      "hand": 5321,
      "NA": 5322,
      "Ozy": 5323,
      "asy": 5324,
      "iła": 5325,
      "nnego": 5326,
      "okrzyk": 5327,
      "ćwi": 5328,
      "strzały": 5329,
      "nina": 5330,
      "wiały": 5331,
      "wyciąga": 5332,
      "tomiast": 5333,
      "nogą": 5334,
      "odpowiadał": 5335,
      "przyszli": 5336,
      "kun": 5337,
      "stanęła": 5338,
      "wer": 5339,
      "rus": 5340,
      "ruchem": 5341,
      "cyj": 5342,
      "pień": 5343,
      "zek": 5344,
      "siąść": 5345,
      "okno": 5346,
      "złożył": 5347,
      "Wier": 5348,
      "Szwedom": 5349,
      "polski": 5350,
      "uwagi": 5351,
      "Labiry": 5352,
      "chleb": 5353,
      "niebezpieczeństwo": 5354,
      "Ozyry": 5355,
      "Ate": 5356,
      "Bur": 5357,
      "Dy": 5358,
      "orę": 5359,
      "plą": 5360,
      "twej": 5361,
      "usu": 5362,
      "Ów": 5363,
      "potwier": 5364,
      "jenerał": 5365,
      "dozna": 5366,
      "tań": 5367,
      "mowę": 5368,
      "maję": 5369,
      "biec": 5370,
      "wiat": 5371,
      "przedmio": 5372,
      "żonym": 5373,
      "krzyż": 5374,
      "niosą": 5375,
      "reszty": 5376,
      "złoty": 5377,
      "długą": 5378,
      "ląkł": 5379,
      "każde": 5380,
      "żołnierza": 5381,
      "dawne": 5382,
      "obawy": 5383,
      "odez": 5384,
      "zabić": 5385,
      "termi": 5386,
      "ostatniej": 5387,
      "zginął": 5388,
      "tysiąc": 5389,
      "Słuchaj": 5390,
      "Billewiczów": 5391,
      "Benedy": 5392,
      "Młody": 5393,
      "dnego": 5394,
      "uto": 5395,
      "wli": 5396,
      "nisko": 5397,
      "rot": 5398,
      "rośli": 5399,
      "wisi": 5400,
      "gotowa": 5401,
      "jemy": 5402,
      "zazdro": 5403,
      "doli": 5404,
      "let": 5405,
      "wan": 5406,
      "kanie": 5407,
      "żeniu": 5408,
      "wyle": 5409,
      "rozmyśla": 5410,
      "szaty": 5411,
      "podwó": 5412,
      "mnieć": 5413,
      "Natomiast": 5414,
      "żonych": 5415,
      "czoła": 5416,
      "Chodź": 5417,
      "sławy": 5418,
      "płacz": 5419,
      "śmiejąc": 5420,
      "Szczy": 5421,
      "mieszcza": 5422,
      "ogniu": 5423,
      "polskich": 5424,
      "pamiętał": 5425,
      "Michała": 5426,
      "bólu": 5427,
      "dostojny": 5428,
      "jasne": 5429,
      "kwiaty": 5430,
      "Rzym": 5431,
      "owszem": 5432,
      "wyjść": 5433,
      "Choćby": 5434,
      "nazwisko": 5435,
      "jmy": 5436,
      "ncie": 5437,
      "sji": 5438,
      "zrę": 5439,
      "niespokoj": 5440,
      "niało": 5441,
      "tany": 5442,
      "wyjdzie": 5443,
      "lasach": 5444,
      "bogom": 5445,
      "któw": 5446,
      "bawił": 5447,
      "jutrze": 5448,
      "znakomi": 5449,
      "siedem": 5450,
      "służył": 5451,
      "grom": 5452,
      "Widać": 5453,
      "dzona": 5454,
      "dług": 5455,
      "ludzka": 5456,
      "ludzką": 5457,
      "klino": 5458,
      "wydawał": 5459,
      "dobrodziej": 5460,
      "świetle": 5461,
      "interes": 5462,
      "arcykapłan": 5463,
      "Witold": 5464,
      "umilkł": 5465,
      "marszałek": 5466,
      "Cię": 5467,
      "bała": 5468,
      "opowiadać": 5469,
      "tnej": 5470,
      "pochwy": 5471,
      "rają": 5472,
      "winien": 5473,
      "kowicz": 5474,
      "zagra": 5475,
      "mija": 5476,
      "waha": 5477,
      "ton": 5478,
      "mali": 5479,
      "czeń": 5480,
      "prawy": 5481,
      "Jakie": 5482,
      "wąsi": 5483,
      "krzyczeć": 5484,
      "ojcem": 5485,
      "całych": 5486,
      "zmienił": 5487,
      "ludzkiej": 5488,
      "Podla": 5489,
      "mieszkania": 5490,
      "Kuklino": 5491,
      "służbę": 5492,
      "dobrym": 5493,
      "hen": 5494,
      "prywa": 5495,
      "ogromny": 5496,
      "obecnych": 5497,
      "księżyca": 5498,
      "Helena": 5499,
      "ORZA": 5500,
      "Wszakże": 5501,
      "dwudziestu": 5502,
      "Ponieważ": 5503,
      "Idź": 5504,
      "Wsze": 5505,
      "oraz": 5506,
      "ozna": 5507,
      "oprócz": 5508,
      "łowi": 5509,
      "pacie": 5510,
      "przesta": 5511,
      "bal": 5512,
      "rozdzie": 5513,
      "zen": 5514,
      "wiarę": 5515,
      "skali": 5516,
      "póty": 5517,
      "Jeste": 5518,
      "myśląc": 5519,
      "słycha": 5520,
      "zdjął": 5521,
      "ściami": 5522,
      "płyną": 5523,
      "gdybyś": 5524,
      "wróciła": 5525,
      "rzone": 5526,
      "skórę": 5527,
      "niezmiernie": 5528,
      "córka": 5529,
      "chleba": 5530,
      "szable": 5531,
      "umarł": 5532,
      "Prus": 5533,
      "Aha": 5534,
      "Tru": 5535,
      "Tłu": 5536,
      "płó": 5537,
      "pożar": 5538,
      "gościa": 5539,
      "pane": 5540,
      "dasz": 5541,
      "cesa": 5542,
      "biesia": 5543,
      "piąc": 5544,
      "szać": 5545,
      "Zaporo": 5546,
      "Jeno": 5547,
      "Tyś": 5548,
      "powstał": 5549,
      "zostawił": 5550,
      "wróciwszy": 5551,
      "zamko": 5552,
      "spojrzenia": 5553,
      "Jużci": 5554,
      "drżą": 5555,
      "polskie": 5556,
      "Bogusła": 5557,
      "środek": 5558,
      "pułkownik": 5559,
      "Herho": 5560,
      "mądry": 5561,
      "fotelu": 5562,
      "Szuman": 5563,
      "----------------": 5564,
      "Stanisław": 5565,
      "Dziękuję": 5566,
      "śmiać": 5567,
      "zadowole": 5568,
      "Lich": 5569,
      "Pal": 5570,
      "ramieniu": 5571,
      "wanych": 5572,
      "wyści": 5573,
      "wybie": 5574,
      "dziewi": 5575,
      "przywie": 5576,
      "pieczę": 5577,
      "bią": 5578,
      "piła": 5579,
      "dep": 5580,
      "duchy": 5581,
      "czących": 5582,
      "mięk": 5583,
      "chciało": 5584,
      "Coś": 5585,
      "rian": 5586,
      "małą": 5587,
      "pędził": 5588,
      "czarny": 5589,
      "trąb": 5590,
      "Kiem": 5591,
      "miony": 5592,
      "dii": 5593,
      "chrześcijan": 5594,
      "Andrzeja": 5595,
      "natury": 5596,
      "miłosierdzie": 5597,
      "dowci": 5598,
      "słyszała": 5599,
      "jesteśmy": 5600,
      "rodzaju": 5601,
      "Twarz": 5602,
      "KA": 5603,
      "zwia": 5604,
      "niebu": 5605,
      "nili": 5606,
      "liwe": 5607,
      "godnie": 5608,
      "zarówno": 5609,
      "waną": 5610,
      "pastu": 5611,
      "dziennie": 5612,
      "mowi": 5613,
      "mana": 5614,
      "siod": 5615,
      "Por": 5616,
      "Bodaj": 5617,
      "Bogiem": 5618,
      "budo": 5619,
      "budy": 5620,
      "zostało": 5621,
      "Jeremi": 5622,
      "armat": 5623,
      "niono": 5624,
      "słyszę": 5625,
      "Sakowicz": 5626,
      "Konie": 5627,
      "drzewo": 5628,
      "pozwala": 5629,
      "dzięki": 5630,
      "lazł": 5631,
      "szeptał": 5632,
      "godne": 5633,
      "dziwnie": 5634,
      "zwycięstwa": 5635,
      "córki": 5636,
      "Króle": 5637,
      "powagą": 5638,
      "konfede": 5639,
      "brew": 5640,
      "ozdo": 5641,
      "rka": 5642,
      "uję": 5643,
      "wszak": 5644,
      "zbó": 5645,
      "zrazu": 5646,
      "zwracając": 5647,
      "ÓR": 5648,
      "szałem": 5649,
      "lime": 5650,
      "wizy": 5651,
      "jezio": 5652,
      "zano": 5653,
      "wyci": 5654,
      "wysy": 5655,
      "jadę": 5656,
      "czyków": 5657,
      "dyna": 5658,
      "mawia": 5659,
      "rozwi": 5660,
      "rękami": 5661,
      "siedzieli": 5662,
      "pek": 5663,
      "puta": 5664,
      "sur": 5665,
      "ciąć": 5666,
      "chyb": 5667,
      "trakta": 5668,
      "złoci": 5669,
      "Karo": 5670,
      "Wokulskim": 5671,
      "Czyli": 5672,
      "dwoje": 5673,
      "miejscach": 5674,
      "własnego": 5675,
      "kocham": 5676,
      "należało": 5677,
      "tryum": 5678,
      "piasku": 5679,
      "Odysa": 5680,
      "szereg": 5681,
      "uczucia": 5682,
      "klasztor": 5683,
      "dragonów": 5684,
      "regimenta": 5685,
      "folwar": 5686,
      "Two": 5687,
      "śre": 5688,
      "niepew": 5689,
      "napo": 5690,
      "koza": 5691,
      "kował": 5692,
      "dodała": 5693,
      "mir": 5694,
      "warzy": 5695,
      "żeć": 5696,
      "jami": 5697,
      "nowym": 5698,
      "ówdzie": 5699,
      "biją": 5700,
      "róża": 5701,
      "prakty": 5702,
      "Nareszcie": 5703,
      "słońcu": 5704,
      "Szcze": 5705,
      "Telime": 5706,
      "Litwie": 5707,
      "Czehry": 5708,
      "krótko": 5709,
      "głych": 5710,
      "osoby": 5711,
      "Bedu": 5712,
      "pilnu": 5713,
      "opiekę": 5714,
      "tajemni": 5715,
      "drewnia": 5716,
      "Bro": 5717,
      "osiem": 5718,
      "tknął": 5719,
      "zgry": 5720,
      "łki": 5721,
      "źń": 5722,
      "czół": 5723,
      "porze": 5724,
      "raca": 5725,
      "wiło": 5726,
      "winem": 5727,
      "zato": 5728,
      "łodzi": 5729,
      "kając": 5730,
      "łami": 5731,
      "wypoczy": 5732,
      "dzikie": 5733,
      "przywiąza": 5734,
      "starzec": 5735,
      "któr": 5736,
      "lubił": 5737,
      "tudzież": 5738,
      "głosu": 5739,
      "pance": 5740,
      "podjazd": 5741,
      "Poz": 5742,
      "pun": 5743,
      "obró": 5744,
      "burzy": 5745,
      "czonym": 5746,
      "bramą": 5747,
      "tenste": 5748,
      "płacić": 5749,
      "czupry": 5750,
      "Wit": 5751,
      "pełno": 5752,
      "śniegu": 5753,
      "serde": 5754,
      "abyś": 5755,
      "Moja": 5756,
      "mniejsze": 5757,
      "zwierz": 5758,
      "żadne": 5759,
      "rozmawiał": 5760,
      "królowa": 5761,
      "wyprawy": 5762,
      "wybuchnął": 5763,
      "Siła": 5764,
      "modlitwy": 5765,
      "Spoj": 5766,
      "cofnął": 5767,
      "szczególniej": 5768,
      "Kirło": 5769,
      "Lichtenste": 5770,
      "GORZA": 5771,
      "Mel": 5772,
      "Pró": 5773,
      "Uj": 5774,
      "kwie": 5775,
      "mk": 5776,
      "schwy": 5777,
      "wnym": 5778,
      "zm": 5779,
      "ŁGORZA": 5780,
      "naczy": 5781,
      "czło": 5782,
      "poję": 5783,
      "rzecze": 5784,
      "zaszło": 5785,
      "łom": 5786,
      "byście": 5787,
      "dygni": 5788,
      "oder": 5789,
      "kiewicz": 5790,
      "stare": 5791,
      "regu": 5792,
      "bienia": 5793,
      "życ": 5794,
      "żywy": 5795,
      "Napole": 5796,
      "waćpanu": 5797,
      "sławę": 5798,
      "kędy": 5799,
      "bramę": 5800,
      "wrócę": 5801,
      "trzci": 5802,
      "wolą": 5803,
      "mówiłem": 5804,
      "pewną": 5805,
      "dzali": 5806,
      "musisz": 5807,
      "blady": 5808,
      "kark": 5809,
      "powiadam": 5810,
      "zwierząt": 5811,
      "patrzą": 5812,
      "palce": 5813,
      "zbroi": 5814,
      "robot": 5815,
      "gorączko": 5816,
      "dziewczynę": 5817,
      "wilicho": 5818,
      "zwróciwszy": 5819,
      "szablę": 5820,
      "klasztoru": 5821,
      "drzwiami": 5822,
      "MAŁGORZA": 5823,
      "Widziałem": 5824,
      "CHÓR": 5825,
      "Żołnierze": 5826,
      "Kordecki": 5827,
      "ivat": 5828,
      "Min": 5829,
      "NI": 5830,
      "Usłyszawszy": 5831,
      "Zoba": 5832,
      "gnęła": 5833,
      "imieniu": 5834,
      "kłu": 5835,
      "twe": 5836,
      "twą": 5837,
      "zgra": 5838,
      "ćwilicho": 5839,
      "niesłycha": 5840,
      "rzeczą": 5841,
      "zama": 5842,
      "bystro": 5843,
      "dziecię": 5844,
      "czyste": 5845,
      "lana": 5846,
      "kując": 5847,
      "stanąć": 5848,
      "staremu": 5849,
      "bać": 5850,
      "Zawsze": 5851,
      "Zaćwilicho": 5852,
      "synem": 5853,
      "władzę": 5854,
      "Lepiej": 5855,
      "rium": 5856,
      "prowadzą": 5857,
      "Mil": 5858,
      "ustami": 5859,
      "patrzyła": 5860,
      "Czas": 5861,
      "wysoki": 5862,
      "krzyknęła": 5863,
      "rozpaczy": 5864,
      "księżyc": 5865,
      "westchnął": 5866,
      "Pierwszy": 5867,
      "Maruszewicz": 5868,
      "Wszelako": 5869,
      "Dal": 5870,
      "Ile": 5871,
      "Kin": 5872,
      "hał": 5873,
      "lnej": 5874,
      "płu": 5875,
      "ppe": 5876,
      "twem": 5877,
      "wcy": 5878,
      "nakry": 5879,
      "posił": 5880,
      "nigdzie": 5881,
      "lia": 5882,
      "liwy": 5883,
      "gory": 5884,
      "zadr": 5885,
      "miła": 5886,
      "żeb": 5887,
      "rysto": 5888,
      "szyli": 5889,
      "czegóż": 5890,
      "gii": 5891,
      "czący": 5892,
      "Chreptio": 5893,
      "bracie": 5894,
      "kłam": 5895,
      "kładnie": 5896,
      "wóż": 5897,
      "złość": 5898,
      "pręd": 5899,
      "dziewki": 5900,
      "dłonią": 5901,
      "potęga": 5902,
      "lepsze": 5903,
      "lepszego": 5904,
      "Krzysi": 5905,
      "zdrowia": 5906,
      "połowy": 5907,
      "rzucać": 5908,
      "południa": 5909,
      "trwogi": 5910,
      "królowej": 5911,
      "mężów": 5912,
      "minut": 5913,
      "kościele": 5914,
      "Grek": 5915,
      "Ly": 5916,
      "hr": 5917,
      "imi": 5918,
      "utwo": 5919,
      "wnych": 5920,
      "wnego": 5921,
      "zbój": 5922,
      "nienie": 5923,
      "napad": 5924,
      "jezd": 5925,
      "zapał": 5926,
      "lesie": 5927,
      "wiemy": 5928,
      "czycy": 5929,
      "przechy": 5930,
      "boski": 5931,
      "mują": 5932,
      "ruje": 5933,
      "wiano": 5934,
      "son": 5935,
      "siedząc": 5936,
      "bek": 5937,
      "dum": 5938,
      "Poppe": 5939,
      "jedź": 5940,
      "sel": 5941,
      "wzniesio": 5942,
      "słabo": 5943,
      "nuż": 5944,
      "możemy": 5945,
      "czuła": 5946,
      "Byłem": 5947,
      "rozumiesz": 5948,
      "szonym": 5949,
      "kapłana": 5950,
      "miejsco": 5951,
      "ruszyła": 5952,
      "karku": 5953,
      "potęgi": 5954,
      "rzeczywi": 5955,
      "największą": 5956,
      "wybuch": 5957,
      "hrabia": 5958,
      "kościoła": 5959,
      "Częstocho": 5960,
      "policzki": 5961,
      "Kiejdan": 5962,
      "MAŁGORZATA": 5963,
      "Azji": 5964,
      "RZ": 5965,
      "dran": 5966,
      "gno": 5967,
      "nna": 5968,
      "spał": 5969,
      "tno": 5970,
      "twych": 5971,
      "wle": 5972,
      "wce": 5973,
      "wkoło": 5974,
      "zmu": 5975,
      "szpa": 5976,
      "poe": 5977,
      "pokazał": 5978,
      "rzekę": 5979,
      "zakła": 5980,
      "papie": 5981,
      "oddali": 5982,
      "oddziały": 5983,
      "latar": 5984,
      "mowie": 5985,
      "kiemu": 5986,
      "mate": 5987,
      "silnie": 5988,
      "stado": 5989,
      "staru": 5990,
      "sać": 5991,
      "wiami": 5992,
      "prawić": 5993,
      "Poto": 5994,
      "lono": 5995,
      "przedsię": 5996,
      "czole": 5997,
      "miarko": 5998,
      "gieł": 5999,
      "straży": 6000,
      "niemało": 6001,
      "złotem": 6002,
      "ciągnęła": 6003,
      "świeżo": 6004,
      "byłaby": 6005,
      "robią": 6006,
      "Byle": 6007,
      "granicy": 6008,
      "zostali": 6009,
      "świętego": 6010,
      "dziewka": 6011,
      "drapież": 6012,
      "ludzki": 6013,
      "wziąwszy": 6014,
      "ujrzawszy": 6015,
      "biony": 6016,
      "czekając": 6017,
      "rozmowa": 6018,
      "wieczor": 6019,
      "Fara": 6020,
      "ogarnął": 6021,
      "rzucili": 6022,
      "kogoś": 6023,
      "potrzebuje": 6024,
      "Amen": 6025,
      "Klej": 6026,
      "Mało": 6027,
      "Tę": 6028,
      "dnik": 6029,
      "niepodobna": 6030,
      "nastąpi": 6031,
      "szkę": 6032,
      "pości": 6033,
      "niki": 6034,
      "koszu": 6035,
      "zastał": 6036,
      "dości": 6037,
      "łok": 6038,
      "lenie": 6039,
      "dziwa": 6040,
      "czymy": 6041,
      "oddy": 6042,
      "mazo": 6043,
      "mawiał": 6044,
      "przypa": 6045,
      "pistole": 6046,
      "szano": 6047,
      "pragną": 6048,
      "znamieni": 6049,
      "puste": 6050,
      "objął": 6051,
      "obóz": 6052,
      "synu": 6053,
      "barba": 6054,
      "prawdo": 6055,
      "swobod": 6056,
      "odpowiedzieć": 6057,
      "Były": 6058,
      "trupów": 6059,
      "garść": 6060,
      "dziana": 6061,
      "walka": 6062,
      "trzymając": 6063,
      "pierwszych": 6064,
      "światłem": 6065,
      "wydaje": 6066,
      "preto": 6067,
      "Odysej": 6068,
      "rzucając": 6069,
      "opat": 6070,
      "ochotę": 6071,
      "wzgórza": 6072,
      "skłonił": 6073,
      "wojowników": 6074,
      "oświadczył": 6075,
      "dziewięć": 6076,
      "dygnita": 6077,
      "Mał": 6078,
      "Wrze": 6079,
      "XIII": 6080,
      "anio": 6081,
      "oszcze": 6082,
      "usłyszawszy": 6083,
      "zaprze": 6084,
      "zamiesza": 6085,
      "dokona": 6086,
      "dozor": 6087,
      "wyna": 6088,
      "wygra": 6089,
      "tyś": 6090,
      "odszedł": 6091,
      "przebra": 6092,
      "przysz": 6093,
      "piekie": 6094,
      "tuła": 6095,
      "tują": 6096,
      "skimi": 6097,
      "siero": 6098,
      "jegomości": 6099,
      "tenczas": 6100,
      "śmiechu": 6101,
      "bronią": 6102,
      "Szko": 6103,
      "żebyś": 6104,
      "chęci": 6105,
      "ciemne": 6106,
      "śpiewać": 6107,
      "szczał": 6108,
      "młodych": 6109,
      "szwedzki": 6110,
      "kniaź": 6111,
      "Achi": 6112,
      "największym": 6113,
      "obecnie": 6114,
      "córkę": 6115,
      "pojadę": 6116,
      "Mahd": 6117,
      "rystokra": 6118,
      "!!": 6119,
      "Ger": 6120,
      "Mzi": 6121,
      "orze": 6122,
      "ochło": 6123,
      "słe": 6124,
      "tkach": 6125,
      "żni": 6126,
      "niny": 6127,
      "rosły": 6128,
      "lii": 6129,
      "jemnie": 6130,
      "ładu": 6131,
      "wysunął": 6132,
      "wybor": 6133,
      "danie": 6134,
      "cien": 6135,
      "majo": 6136,
      "podniesio": 6137,
      "stojąc": 6138,
      "sułta": 6139,
      "najbardziej": 6140,
      "Szlach": 6141,
      "szum": 6142,
      "krok": 6143,
      "końmi": 6144,
      "Wiedział": 6145,
      "płynął": 6146,
      "ciemno": 6147,
      "szlachtę": 6148,
      "uczyniła": 6149,
      "pięknie": 6150,
      "potęgą": 6151,
      "ziemią": 6152,
      "zębami": 6153,
      "trafił": 6154,
      "diabła": 6155,
      "dobrych": 6156,
      "Niemcy": 6157,
      "kwadran": 6158,
      "berg": 6159,
      "obycza": 6160,
      "Krzeczo": 6161,
      "usiło": 6162,
      "Zygfryd": 6163,
      "Mzimu": 6164,
      "Aby": 6165,
      "Hla": 6166,
      "Nim": 6167,
      "ad": 6168,
      "gma": 6169,
      "ogól": 6170,
      "tchnie": 6171,
      "wzy": 6172,
      "śpią": 6173,
      "żne": 6174,
      "ien": 6175,
      "chwała": 6176,
      "szcząc": 6177,
      "radziwił": 6178,
      "rzej": 6179,
      "wite": 6180,
      "wypada": 6181,
      "nosa": 6182,
      "ciela": 6183,
      "przeczu": 6184,
      "mojego": 6185,
      "jąwszy": 6186,
      "cenie": 6187,
      "przywo": 6188,
      "przysłał": 6189,
      "łuk": 6190,
      "som": 6191,
      "Natura": 6192,
      "żając": 6193,
      "synów": 6194,
      "zostały": 6195,
      "impe": 6196,
      "armaty": 6197,
      "Widzisz": 6198,
      "dzonych": 6199,
      "Raszko": 6200,
      "szkoda": 6201,
      "Roch": 6202,
      "poczęto": 6203,
      "łąka": 6204,
      "ogród": 6205,
      "okolicz": 6206,
      "seme": 6207,
      "znajdo": 6208,
      "sztuki": 6209,
      "zwycięz": 6210,
      "pismo": 6211,
      "Dzień": 6212,
      "jakiejś": 6213,
      "hini": 6214,
      "język": 6215,
      "niebezpieczeństwa": 6216,
      "więzienia": 6217,
      "zwłoki": 6218,
      "Witten": 6219,
      "Ję": 6220,
      "Sia": 6221,
      "Znam": 6222,
      "fale": 6223,
      "ke": 6224,
      "oporu": 6225,
      "snem": 6226,
      "spuszczo": 6227,
      "uchy": 6228,
      "zną": 6229,
      "ństwie": 6230,
      "niezbyt": 6231,
      "poseł": 6232,
      "ratować": 6233,
      "zasię": 6234,
      "don": 6235,
      "len": 6236,
      "lecho": 6237,
      "żeśmy": 6238,
      "przystoj": 6239,
      "bak": 6240,
      "gabi": 6241,
      "pisy": 6242,
      "głosie": 6243,
      "szalał": 6244,
      "znali": 6245,
      "bejo": 6246,
      "obraź": 6247,
      "niejszej": 6248,
      "słowy": 6249,
      "bliska": 6250,
      "Macie": 6251,
      "Szczęście": 6252,
      "małej": 6253,
      "płynęła": 6254,
      "nowiny": 6255,
      "gruby": 6256,
      "towarzyszów": 6257,
      "kamienie": 6258,
      "Żyd": 6259,
      "Żydzi": 6260,
      "wzięli": 6261,
      "zacny": 6262,
      "potężny": 6263,
      "Danusia": 6264,
      "ślady": 6265,
      "południu": 6266,
      "Czarnieckiego": 6267,
      "Krzyżacy": 6268,
      "Rzymu": 6269,
      "Słyszałem": 6270,
      "miłosierny": 6271,
      "księżny": 6272,
      "spoglądać": 6273,
      "okręt": 6274,
      "czapkę": 6275,
      "doskona": 6276,
      "gałęzi": 6277,
      "Mellecho": 6278,
      "Faraon": 6279,
      "Ara": 6280,
      "Cały": 6281,
      "Rę": 6282,
      "Suda": 6283,
      "Zosta": 6284,
      "bny": 6285,
      "fle": 6286,
      "far": 6287,
      "grał": 6288,
      "rku": 6289,
      "tką": 6290,
      "ulu": 6291,
      "czności": 6292,
      "dzki": 6293,
      "widno": 6294,
      "zaufa": 6295,
      "kapli": 6296,
      "wieków": 6297,
      "wyku": 6298,
      "tytu": 6299,
      "odmie": 6300,
      "lając": 6301,
      "bodaj": 6302,
      "przymie": 6303,
      "przytu": 6304,
      "szeni": 6305,
      "gina": 6306,
      "podnieść": 6307,
      "znaki": 6308,
      "Powała": 6309,
      "puszczy": 6310,
      "Zakon": 6311,
      "loka": 6312,
      "angiel": 6313,
      "miaste": 6314,
      "cięża": 6315,
      "ciach": 6316,
      "jony": 6317,
      "niowo": 6318,
      "wolność": 6319,
      "Baśka": 6320,
      "Kmicicowi": 6321,
      "dziad": 6322,
      "skutek": 6323,
      "zostawić": 6324,
      "trwało": 6325,
      "kompani": 6326,
      "postanowi": 6327,
      "lepszy": 6328,
      "straszna": 6329,
      "Lubo": 6330,
      "palcami": 6331,
      "małym": 6332,
      "diab": 6333,
      "przyszłość": 6334,
      "pokazać": 6335,
      "straszliwy": 6336,
      "Augu": 6337,
      "Wojski": 6338,
      "Łęcki": 6339,
      "zamiar": 6340,
      "litość": 6341,
      "głąb": 6342,
      "komorzy": 6343,
      "człeka": 6344,
      "Mikołaj": 6345,
      "Anzelm": 6346,
      "Floren": 6347,
      "radziwiłło": 6348,
      "Dwa": 6349,
      "gwa": 6350,
      "tw": 6351,
      "uko": 6352,
      "ucho": 6353,
      "szmer": 6354,
      "nikami": 6355,
      "wiona": 6356,
      "zata": 6357,
      "zagro": 6358,
      "legł": 6359,
      "paru": 6360,
      "wypę": 6361,
      "jaśnie": 6362,
      "mogi": 6363,
      "mową": 6364,
      "mocą": 6365,
      "kuch": 6366,
      "czeni": 6367,
      "rety": 6368,
      "ruchy": 6369,
      "sadza": 6370,
      "gania": 6371,
      "głodu": 6372,
      "stości": 6373,
      "stojący": 6374,
      "rzadko": 6375,
      "najgor": 6376,
      "Chwała": 6377,
      "płaci": 6378,
      "dzeniem": 6379,
      "barwy": 6380,
      "mędr": 6381,
      "wolny": 6382,
      "obowiąz": 6383,
      "rozumu": 6384,
      "podobną": 6385,
      "dziećmi": 6386,
      "ciemnej": 6387,
      "młode": 6388,
      "młodzian": 6389,
      "Pene": 6390,
      "zwierza": 6391,
      "wysokie": 6392,
      "sławny": 6393,
      "gotowe": 6394,
      "pisarz": 6395,
      "szlachcica": 6396,
      "wieckiego": 6397,
      "komnacie": 6398,
      "spostrzegłszy": 6399,
      "leżały": 6400,
      "nomarcha": 6401,
      "Wrzeszczo": 6402,
      "Gro": 6403,
      "arystokra": 6404,
      "mno": 6405,
      "ogło": 6406,
      "upa": 6407,
      "urado": 6408,
      "wbrew": 6409,
      "łód": 6410,
      "niejeden": 6411,
      "chwa": 6412,
      "szk": 6413,
      "szkiem": 6414,
      "porówna": 6415,
      "rowy": 6416,
      "kono": 6417,
      "cichu": 6418,
      "zamę": 6419,
      "dokładnie": 6420,
      "kary": 6421,
      "ład": 6422,
      "żeście": 6423,
      "wyprosto": 6424,
      "odtąd": 6425,
      "magna": 6426,
      "bier": 6427,
      "chodzę": 6428,
      "gadał": 6429,
      "Podob": 6430,
      "obda": 6431,
      "powieki": 6432,
      "najpięk": 6433,
      "fitea": 6434,
      "władzy": 6435,
      "będziecie": 6436,
      "wolnie": 6437,
      "Rawli": 6438,
      "ciemność": 6439,
      "święta": 6440,
      "przyjaciela": 6441,
      "Dagon": 6442,
      "Muszę": 6443,
      "potrzeby": 6444,
      "osobi": 6445,
      "siadłszy": 6446,
      "łódź": 6447,
      "Słucha": 6448,
      "uczynię": 6449,
      "sprawiedliwości": 6450,
      "litości": 6451,
      "czeladzi": 6452,
      "rozmaitych": 6453,
      "bitwę": 6454,
      "Kalego": 6455,
      "jesteście": 6456,
      "kierunku": 6457,
      "przysiągł": 6458,
      "Prę": 6459,
      "Sem": 6460,
      "dnąć": 6461,
      "opór": 6462,
      "spadnie": 6463,
      "uspo": 6464,
      "wskó": 6465,
      "niechyb": 6466,
      "szkla": 6467,
      "pode": 6468,
      "potom": 6469,
      "jecha": 6470,
      "kiwał": 6471,
      "wodo": 6472,
      "odwrócił": 6473,
      "sile": 6474,
      "siód": 6475,
      "przykry": 6476,
      "ret": 6477,
      "chody": 6478,
      "rósł": 6479,
      "czące": 6480,
      "indziej": 6481,
      "sługa": 6482,
      "mężo": 6483,
      "złożyć": 6484,
      "czymś": 6485,
      "walić": 6486,
      "kazały": 6487,
      "fala": 6488,
      "każdemu": 6489,
      "młoda": 6490,
      "gnał": 6491,
      "wsparł": 6492,
      "szlachtą": 6493,
      "głębie": 6494,
      "pamiętam": 6495,
      "obiecy": 6496,
      "widzial": 6497,
      "smutku": 6498,
      "nikowi": 6499,
      "piony": 6500,
      "głym": 6501,
      "ojczyznę": 6502,
      "srogi": 6503,
      "proces": 6504,
      "boleści": 6505,
      "czeladź": 6506,
      "miłuje": 6507,
      "zatrzymy": 6508,
      "Patrzcie": 6509,
      "Obaj": 6510,
      "praszam": 6511,
      "dodatku": 6512,
      "Podbipięta": 6513,
      "Zakonu": 6514,
      "Naturalnie": 6515,
      "Gó": 6516,
      "Sko": 6517,
      "idę": 6518,
      "idź": 6519,
      "sch": 6520,
      "spadł": 6521,
      "uma": 6522,
      "poj": 6523,
      "pomiesza": 6524,
      "lim": 6525,
      "wiwszy": 6526,
      "kopyta": 6527,
      "zakoń": 6528,
      "waniem": 6529,
      "wyko": 6530,
      "czyny": 6531,
      "przyniósł": 6532,
      "reli": 6533,
      "pienie": 6534,
      "żyją": 6535,
      "pirami": 6536,
      "wiam": 6537,
      "lonych": 6538,
      "lonym": 6539,
      "Chcę": 6540,
      "kroku": 6541,
      "zmienia": 6542,
      "królewskie": 6543,
      "ogrodu": 6544,
      "strasznie": 6545,
      "majątku": 6546,
      "bezpiecze": 6547,
      "zależy": 6548,
      "barona": 6549,
      "pachołek": 6550,
      "piechotą": 6551,
      "zdrajcy": 6552,
      "kwiatów": 6553,
      "Zdaje": 6554,
      "białym": 6555,
      "obyczaj": 6556,
      "latywały": 6557,
      "Butry": 6558,
      "nazwiska": 6559,
      "...": 6560,
      "Czuł": 6561,
      "Zgorzelic": 6562,
      "Florenty": 6563,
      "Hor": 6564,
      "Mę": 6565,
      "Wz": 6566,
      "Wkrótce": 6567,
      "oparł": 6568,
      "tało": 6569,
      "tnego": 6570,
      "śniej": 6571,
      "rowe": 6572,
      "liczył": 6573,
      "gorzał": 6574,
      "dołu": 6575,
      "les": 6576,
      "kam": 6577,
      "tera": 6578,
      "dziki": 6579,
      "many": 6580,
      "przyzna": 6581,
      "staran": 6582,
      "ruma": 6583,
      "biała": 6584,
      "zej": 6585,
      "prawej": 6586,
      "Nazajutrz": 6587,
      "Jej": 6588,
      "nadszedł": 6589,
      "trosk": 6590,
      "Mazo": 6591,
      "świeży": 6592,
      "krako": 6593,
      "chust": 6594,
      "płynęły": 6595,
      "mniejszy": 6596,
      "karcz": 6597,
      "ńcach": 6598,
      "patrzał": 6599,
      "Musza": 6600,
      "farao": 6601,
      "dostojności": 6602,
      "dziwny": 6603,
      "gachów": 6604,
      "darł": 6605,
      "kniahini": 6606,
      "niewiast": 6607,
      "dobrej": 6608,
      "Geist": 6609,
      "stępować": 6610,
      "Krakowa": 6611,
      "przywiózł": 6612,
      "wdzięczność": 6613,
      "biorąc": 6614,
      "mądrość": 6615,
      "Rotgier": 6616,
      "adwokat": 6617,
      "błąd": 6618,
      "Herhora": 6619,
      "Cy": 6620,
      "Im": 6621,
      "Ofi": 6622,
      "Pre": 6623,
      "Tra": 6624,
      "US": 6625,
      "nkami": 6626,
      "oprze": 6627,
      "trój": 6628,
      "żkę": 6629,
      "niezawo": 6630,
      "naboże": 6631,
      "szó": 6632,
      "łożu": 6633,
      "minie": 6634,
      "miodu": 6635,
      "waria": 6636,
      "wieży": 6637,
      "dziu": 6638,
      "dadzą": 6639,
      "oddech": 6640,
      "boć": 6641,
      "resa": 6642,
      "ginie": 6643,
      "siedziała": 6644,
      "stoli": 6645,
      "rzekłem": 6646,
      "proro": 6647,
      "meta": 6648,
      "najdzie": 6649,
      "Jedni": 6650,
      "krzyczał": 6651,
      "gód": 6652,
      "part": 6653,
      "chwyciwszy": 6654,
      "dziewczę": 6655,
      "otoczony": 6656,
      "brzegiem": 6657,
      "wiedziałem": 6658,
      "towarzystwie": 6659,
      "bóstwo": 6660,
      "znajdował": 6661,
      "porwali": 6662,
      "Myśli": 6663,
      "wzięła": 6664,
      "puszczając": 6665,
      "Danuś": 6666,
      "kolanach": 6667,
      "komendę": 6668,
      "Zych": 6669,
      "jeżdżać": 6670,
      "wesele": 6671,
      "sprawiedliwość": 6672,
      "cjum": 6673,
      "odwagi": 6674,
      "ataku": 6675,
      "ostrożnie": 6676,
      "kasztelan": 6677,
      "biskup": 6678,
      "augu": 6679,
      "Widocznie": 6680,
      "potrzebował": 6681,
      "Ca": 6682,
      "dżu": 6683,
      "iły": 6684,
      "onej": 6685,
      "pnie": 6686,
      "wcześnie": 6687,
      "zł": 6688,
      "czku": 6689,
      "pobladł": 6690,
      "strą": 6691,
      "niło": 6692,
      "rosną": 6693,
      "kość": 6694,
      "zabra": 6695,
      "zawar": 6696,
      "zachę": 6697,
      "dowiedzieć": 6698,
      "łosko": 6699,
      "waszym": 6700,
      "wykona": 6701,
      "jadł": 6702,
      "ryby": 6703,
      "przyjąć": 6704,
      "rozgnie": 6705,
      "anu": 6706,
      "czonej": 6707,
      "słać": 6708,
      "królu": 6709,
      "jowi": 6710,
      "sądu": 6711,
      "pięt": 6712,
      "śnieg": 6713,
      "gdzieniegdzie": 6714,
      "rządek": 6715,
      "obozo": 6716,
      "podobnym": 6717,
      "walkę": 6718,
      "pozwól": 6719,
      "kobietę": 6720,
      "domem": 6721,
      "rozmawiali": 6722,
      "mieszkańców": 6723,
      "uczty": 6724,
      "wszelkich": 6725,
      "Jagienki": 6726,
      "ludność": 6727,
      "Cicho": 6728,
      "stępował": 6729,
      "błogosławie": 6730,
      "spoglądając": 6731,
      "Słońce": 6732,
      "wspaniały": 6733,
      "Telema": 6734,
      "amfitea": 6735,
      "Żmuj": 6736,
      "odetchnął": 6737,
      "Gebhr": 6738,
      "okien": 6739,
      "konfedera": 6740,
      "Penelo": 6741,
      "Sobie": 6742,
      "fie": 6743,
      "gało": 6744,
      "ili": 6745,
      "tnik": 6746,
      "zde": 6747,
      "żny": 6748,
      "nieśmiertel": 6749,
      "popę": 6750,
      "nisz": 6751,
      "dzba": 6752,
      "wajcie": 6753,
      "wydała": 6754,
      "jar": 6755,
      "jaśni": 6756,
      "cieniu": 6757,
      "pienia": 6758,
      "rozsze": 6759,
      "chan": 6760,
      "obchodzi": 6761,
      "Jarem": 6762,
      "inten": 6763,
      "słowie": 6764,
      "powsta": 6765,
      "Panu": 6766,
      "zdarzyło": 6767,
      "Kapła": 6768,
      "dziane": 6769,
      "miłością": 6770,
      "husa": 6771,
      "dworza": 6772,
      "nowicie": 6773,
      "należą": 6774,
      "czarnych": 6775,
      "dzielić": 6776,
      "chłopca": 6777,
      "Izabelę": 6778,
      "okazać": 6779,
      "służbie": 6780,
      "szwedzkiego": 6781,
      "ramionach": 6782,
      "potężne": 6783,
      "niewolnicy": 6784,
      "Kozak": 6785,
      "zdziwiony": 6786,
      "ogniska": 6787,
      "dziedziniec": 6788,
      "znajomy": 6789,
      "leżała": 6790,
      "Waćpan": 6791,
      "przykładem": 6792,
      "obiad": 6793,
      "Malborga": 6794,
      "Serce": 6795,
      "Cała": 6796,
      "qu": 6797,
      "sprzeci": 6798,
      "zjo": 6799,
      "ństw": 6800,
      "śmiały": 6801,
      "szały": 6802,
      "pomie": 6803,
      "popatrzył": 6804,
      "gorz": 6805,
      "goście": 6806,
      "kolan": 6807,
      "łagod": 6808,
      "wytrzymać": 6809,
      "cienie": 6810,
      "przewa": 6811,
      "maga": 6812,
      "przysta": 6813,
      "kupiec": 6814,
      "wezwa": 6815,
      "rumieni": 6816,
      "rozpra": 6817,
      "sowe": 6818,
      "puszczę": 6819,
      "jedne": 6820,
      "pytam": 6821,
      "sekre": 6822,
      "Woło": 6823,
      "Takie": 6824,
      "droż": 6825,
      "armii": 6826,
      "czuję": 6827,
      "sądził": 6828,
      "wiązać": 6829,
      "złotych": 6830,
      "ścianę": 6831,
      "Czym": 6832,
      "dwieście": 6833,
      "święto": 6834,
      "potęgę": 6835,
      "starym": 6836,
      "starych": 6837,
      "ńcami": 6838,
      "królewski": 6839,
      "gład": 6840,
      "polskiego": 6841,
      "Lub": 6842,
      "grzesz": 6843,
      "wydawało": 6844,
      "smutek": 6845,
      "szwedzkich": 6846,
      "szczęśliwie": 6847,
      "gen": 6848,
      "ciekawość": 6849,
      "zgubę": 6850,
      "władca": 6851,
      "gwiazd": 6852,
      "zwróciła": 6853,
      "zaporo": 6854,
      "istnie": 6855,
      "wiązał": 6856,
      "Kazimierza": 6857,
      "stii": 6858,
      "Apostoł": 6859,
      "Danveld": 6860,
      "żądał": 6861,
      "stolniko": 6862,
      "Bogusławo": 6863,
      "FOR": 6864,
      "ccy": 6865,
      "dżd": 6866,
      "opar": 6867,
      "otrzyma": 6868,
      "otrzymał": 6869,
      "oczom": 6870,
      "smy": 6871,
      "zję": 6872,
      "łby": 6873,
      "ślubo": 6874,
      "nieo": 6875,
      "niewolę": 6876,
      "niżej": 6877,
      "wicze": 6878,
      "gody": 6879,
      "zara": 6880,
      "zary": 6881,
      "zarę": 6882,
      "zanu": 6883,
      "zapano": 6884,
      "zapal": 6885,
      "tabo": 6886,
      "wyrwał": 6887,
      "laj": 6888,
      "mowała": 6889,
      "kier": 6890,
      "miec": 6891,
      "miecze": 6892,
      "przynosi": 6893,
      "kula": 6894,
      "muję": 6895,
      "wezwał": 6896,
      "rozpę": 6897,
      "rozdraż": 6898,
      "życiem": 6899,
      "cając": 6900,
      "sor": 6901,
      "podnosił": 6902,
      "losy": 6903,
      "sługę": 6904,
      "nionym": 6905,
      "wejść": 6906,
      "kroki": 6907,
      "Można": 6908,
      "dzają": 6909,
      "trupy": 6910,
      "Mimo": 6911,
      "brały": 6912,
      "widokiem": 6913,
      "miastem": 6914,
      "nocle": 6915,
      "piękną": 6916,
      "starca": 6917,
      "uderzyć": 6918,
      "towarzysza": 6919,
      "porwać": 6920,
      "baronowej": 6921,
      "Gdzież": 6922,
      "leciała": 6923,
      "silniej": 6924,
      "rzuciwszy": 6925,
      "Tutmozisa": 6926,
      "pierwszą": 6927,
      "dojrzał": 6928,
      "miłosierdzia": 6929,
      "kwit": 6930,
      "zniknął": 6931,
      "piorun": 6932,
      "Pięk": 6933,
      "barbarzy": 6934,
      "El": 6935,
      "Hetma": 6936,
      "Knia": 6937,
      "SA": 6938,
      "krza": 6939,
      "mknął": 6940,
      "ntem": 6941,
      "przę": 6942,
      "ptaki": 6943,
      "uni": 6944,
      "upał": 6945,
      "wczy": 6946,
      "wrę": 6947,
      "wpadła": 6948,
      "czność": 6949,
      "podzię": 6950,
      "pocału": 6951,
      "lip": 6952,
      "zapowie": 6953,
      "ławy": 6954,
      "kiwać": 6955,
      "wyrzu": 6956,
      "jacy": 6957,
      "tora": 6958,
      "przedzie": 6959,
      "przygoto": 6960,
      "sześciu": 6961,
      "czary": 6962,
      "niawszy": 6963,
      "żyłem": 6964,
      "stość": 6965,
      "lonej": 6966,
      "wzniósł": 6967,
      "wzruszył": 6968,
      "trzysta": 6969,
      "nioną": 6970,
      "zią": 6971,
      "zior": 6972,
      "Tyzen": 6973,
      "panienka": 6974,
      "małże": 6975,
      "godzinie": 6976,
      "Skrzetuskiemu": 6977,
      "wojewódz": 6978,
      "ogrodzie": 6979,
      "wskazał": 6980,
      "jedziesz": 6981,
      "Chociaż": 6982,
      "silny": 6983,
      "gorąco": 6984,
      "rozpacz": 6985,
      "pułkowników": 6986,
      "środka": 6987,
      "komendy": 6988,
      "dziedzińcu": 6989,
      "posiadał": 6990,
      "namiestnika": 6991,
      "cnotli": 6992,
      "strzelać": 6993,
      "wzruszenia": 6994,
      "Burła": 6995,
      "Gerwa": 6996,
      "Czło": 6997,
      "Jó": 6998,
      "Vivat": 6999,
      "Wło": 7000,
      "Wal": 7001,
      "ami": 7002,
      "lwa": 7003,
      "ltaj": 7004,
      "ody": 7005,
      "onych": 7006,
      "snad": 7007,
      "trę": 7008,
      "uprzej": 7009,
      "zwró": 7010,
      "zwąt": 7011,
      "nawy": 7012,
      "następu": 7013,
      "poha": 7014,
      "połowie": 7015,
      "poran": 7016,
      "wicznie": 7017,
      "komor": 7018,
      "koniach": 7019,
      "zamor": 7020,
      "doktór": 7021,
      "łopa": 7022,
      "tatu": 7023,
      "wymie": 7024,
      "kub": 7025,
      "szenie": 7026,
      "cona": 7027,
      "rozer": 7028,
      "del": 7029,
      "znają": 7030,
      "promienie": 7031,
      "sypi": 7032,
      "głód": 7033,
      "Wodo": 7034,
      "czuje": 7035,
      "Widzi": 7036,
      "męki": 7037,
      "Patro": 7038,
      "Tyle": 7039,
      "światem": 7040,
      "Zagłobie": 7041,
      "Tedy": 7042,
      "szuł": 7043,
      "mógłbym": 7044,
      "granic": 7045,
      "wart": 7046,
      "własny": 7047,
      "Mefi": 7048,
      "fenic": 7049,
      "Lubi": 7050,
      "kamieni": 7051,
      "bione": 7052,
      "Jurandów": 7053,
      "modlić": 7054,
      "rozległy": 7055,
      "zginie": 7056,
      "Maria": 7057,
      "szeregu": 7058,
      "Eunice": 7059,
      "powtarzając": 7060,
      "niebawem": 7061,
      "Babini": 7062,
      "ulicę": 7063,
      "uspokoił": 7064,
      "powinni": 7065,
      "przestrzeni": 7066,
      "prezesowa": 7067,
      "Kamieńca": 7068,
      "wypytywać": 7069,
      "Jesteś": 7070,
      "Tyzenhau": 7071,
      "Ost": 7072,
      "gnię": 7073,
      "ide": 7074,
      "tle": 7075,
      "ubo": 7076,
      "uczył": 7077,
      "ukazała": 7078,
      "szwa": 7079,
      "posi": 7080,
      "stów": 7081,
      "niły": 7082,
      "roczy": 7083,
      "kop": 7084,
      "kosz": 7085,
      "dobie": 7086,
      "kata": 7087,
      "żebra": 7088,
      "wywo": 7089,
      "noce": 7090,
      "nogę": 7091,
      "dajcie": 7092,
      "przejdzie": 7093,
      "mane": 7094,
      "boś": 7095,
      "boskie": 7096,
      "miecza": 7097,
      "ścisnął": 7098,
      "rum": 7099,
      "biego": 7100,
      "rozkazał": 7101,
      "żywa": 7102,
      "piór": 7103,
      "obłąka": 7104,
      "lom": 7105,
      "wąsy": 7106,
      "niusz": 7107,
      "tamtych": 7108,
      "dzoną": 7109,
      "chłopiec": 7110,
      "zdania": 7111,
      "gardła": 7112,
      "mieszkał": 7113,
      "ważał": 7114,
      "święte": 7115,
      "chciałbym": 7116,
      "zamknął": 7117,
      "spojrzenie": 7118,
      "brzegi": 7119,
      "straszną": 7120,
      "Bir": 7121,
      "Dobrzy": 7122,
      "precz": 7123,
      "darmo": 7124,
      "zapach": 7125,
      "Faust": 7126,
      "pacholę": 7127,
      "wydoby": 7128,
      "uczucie": 7129,
      "przerażenia": 7130,
      "Będę": 7131,
      "niesiono": 7132,
      "spotkanie": 7133,
      "dzierża": 7134,
      "Grecy": 7135,
      "rozmaite": 7136,
      "Sande": 7137,
      "Myślałem": 7138,
      "Sargon": 7139,
      "energi": 7140,
      "Kowalski": 7141,
      "Wierszuł": 7142,
      "Isto": 7143,
      "Zd": 7144,
      "elek": 7145,
      "gród": 7146,
      "lżej": 7147,
      "opowiedział": 7148,
      "ssa": 7149,
      "spuści": 7150,
      "usługi": 7151,
      "zmieszał": 7152,
      "śnią": 7153,
      "żby": 7154,
      "nieusta": 7155,
      "niebio": 7156,
      "naz": 7157,
      "nastała": 7158,
      "chały": 7159,
      "szemu": 7160,
      "popło": 7161,
      "popio": 7162,
      "kopy": 7163,
      "zawoła": 7164,
      "zaklę": 7165,
      "zamyśle": 7166,
      "zabrz": 7167,
      "dowski": 7168,
      "kazać": 7169,
      "palą": 7170,
      "wydać": 7171,
      "wyobra": 7172,
      "nożem": 7173,
      "rym": 7174,
      "odgłos": 7175,
      "stami": 7176,
      "rezu": 7177,
      "weszła": 7178,
      "basz": 7179,
      "rusz": 7180,
      "biegu": 7181,
      "rozło": 7182,
      "sowej": 7183,
      "skrze": 7184,
      "sień": 7185,
      "stofe": 7186,
      "bramie": 7187,
      "słody": 7188,
      "Mazu": 7189,
      "piętro": 7190,
      "książęcy": 7191,
      "traf": 7192,
      "świeże": 7193,
      "Wielko": 7194,
      "humor": 7195,
      "Wyso": 7196,
      "ustawicznie": 7197,
      "własnymi": 7198,
      "ramion": 7199,
      "wscho": 7200,
      "walce": 7201,
      "dziewkę": 7202,
      "królewska": 7203,
      "królewskim": 7204,
      "królewskich": 7205,
      "lekka": 7206,
      "towarzystwo": 7207,
      "wielkimi": 7208,
      "sercach": 7209,
      "potrzebie": 7210,
      "plecy": 7211,
      "zmarszczył": 7212,
      "silne": 7213,
      "Zeus": 7214,
      "pokaże": 7215,
      "Krzyżaków": 7216,
      "Spychowie": 7217,
      "sprzeda": 7218,
      "czapki": 7219,
      "nienawiść": 7220,
      "mołojców": 7221,
      "honor": 7222,
      "Żmudzi": 7223,
      "Paryża": 7224,
      "hrabina": 7225,
      "wąwozu": 7226,
      "orszaku": 7227,
      "Mraczewski": 7228,
      "Mahdiego": 7229,
      "Mefistofe": 7230,
      "Oby": 7231,
      "Owóż": 7232,
      "iło": 7233,
      "nności": 7234,
      "oskar": 7235,
      "pki": 7236,
      "snę": 7237,
      "wsza": 7238,
      "wkę": 7239,
      "zmo": 7240,
      "czniej": 7241,
      "poła": 7242,
      "pouf": 7243,
      "rocznie": 7244,
      "gowa": 7245,
      "wieś": 7246,
      "pany": 7247,
      "pasa": 7248,
      "papier": 7249,
      "odjechał": 7250,
      "przemówił": 7251,
      "miesięcy": 7252,
      "wewnętrz": 7253,
      "rozsta": 7254,
      "żynie": 7255,
      "wiatru": 7256,
      "pen": 7257,
      "jedwa": 7258,
      "miary": 7259,
      "giego": 7260,
      "filo": 7261,
      "krótki": 7262,
      "śmiech": 7263,
      "wiązek": 7264,
      "pełną": 7265,
      "hultaj": 7266,
      "Mia": 7267,
      "półgłosem": 7268,
      "Wołodyjowskim": 7269,
      "Ancjum": 7270,
      "szczyt": 7271,
      "kilkudziesięciu": 7272,
      "wskazując": 7273,
      "skarby": 7274,
      "towarzystwa": 7275,
      "słuchali": 7276,
      "cheł": 7277,
      "sędzi": 7278,
      "ucztę": 7279,
      "bogaty": 7280,
      "otworzyły": 7281,
      "chrześcijanie": 7282,
      "ukryć": 7283,
      "pułkownika": 7284,
      "zemsty": 7285,
      "piechota": 7286,
      "składa": 7287,
      "gwiazda": 7288,
      "Fenicjanie": 7289,
      "znajdziesz": 7290,
      "narodu": 7291,
      "Pentue": 7292,
      "Krakowie": 7293,
      "Dajże": 7294,
      "dowiedziawszy": 7295,
      "cjusz": 7296,
      "uważał": 7297,
      "Asyryj": 7298,
      "Korczyński": 7299,
      "Stój": 7300,
      "wielmożny": 7301,
      "gabine": 7302,
      "Euro": 7303,
      "IE": 7304,
      "Klu": 7305,
      "fon": 7306,
      "psów": 7307,
      "uzy": 7308,
      "von": 7309,
      "wsie": 7310,
      "wnik": 7311,
      "zdej": 7312,
      "niedługo": 7313,
      "posel": 7314,
      "nikom": 7315,
      "liły": 7316,
      "cisz": 7317,
      "zagar": 7318,
      "dostar": 7319,
      "lecą": 7320,
      "byt": 7321,
      "wyry": 7322,
      "wytrzyma": 7323,
      "mawiać": 7324,
      "przyznać": 7325,
      "przystoi": 7326,
      "bawić": 7327,
      "bierz": 7328,
      "cono": 7329,
      "rozwa": 7330,
      "szara": 7331,
      "znaczne": 7332,
      "prowin": 7333,
      "żoł": 7334,
      "słuchi": 7335,
      "służeb": 7336,
      "miano": 7337,
      "mianowicie": 7338,
      "pierał": 7339,
      "Tobie": 7340,
      "równe": 7341,
      "dnicy": 7342,
      "musimy": 7343,
      "ruszyły": 7344,
      "drugich": 7345,
      "spojrzała": 7346,
      "czarno": 7347,
      "grzechy": 7348,
      "grube": 7349,
      "grunt": 7350,
      "głuchy": 7351,
      "kościół": 7352,
      "mruczał": 7353,
      "rodziny": 7354,
      "starości": 7355,
      "wszelką": 7356,
      "niebieskie": 7357,
      "trwogą": 7358,
      "uczuć": 7359,
      "Euna": 7360,
      "spiesznie": 7361,
      "komisa": 7362,
      "Syna": 7363,
      "obejrzał": 7364,
      "zbrojnych": 7365,
      "niecierpliwie": 7366,
      "aksami": 7367,
      "Chcesz": 7368,
      "handlu": 7369,
      "wąsikami": 7370,
      "Zaporoż": 7371,
      "Istotnie": 7372,
      "CE": 7373,
      "DA": 7374,
      "Ojcie": 7375,
      "Skoro": 7376,
      "lnego": 7377,
      "mni": 7378,
      "opi": 7379,
      "rzan": 7380,
      "nasta": 7381,
      "posy": 7382,
      "ponad": 7383,
      "niźli": 7384,
      "zajął": 7385,
      "zabrać": 7386,
      "zakłopo": 7387,
      "wyła": 7388,
      "wyczer": 7389,
      "noś": 7390,
      "dziwszy": 7391,
      "odde": 7392,
      "przesu": 7393,
      "szyło": 7394,
      "sion": 7395,
      "przybyli": 7396,
      "przynieść": 7397,
      "wezmę": 7398,
      "tuj": 7399,
      "Pozna": 7400,
      "jęła": 7401,
      "równy": 7402,
      "Widząc": 7403,
      "stępy": 7404,
      "świecą": 7405,
      "Samentu": 7406,
      "warko": 7407,
      "blada": 7408,
      "iada": 7409,
      "wschód": 7410,
      "włos": 7411,
      "spojrzeć": 7412,
      "ciężki": 7413,
      "towarzysz": 7414,
      "wydawała": 7415,
      "Chowa": 7416,
      "diabli": 7417,
      "bywają": 7418,
      "obronie": 7419,
      "znalazła": 7420,
      "długiej": 7421,
      "błogosławi": 7422,
      "ufność": 7423,
      "pochód": 7424,
      "nazywa": 7425,
      "względu": 7426,
      "rozkoszy": 7427,
      "powinna": 7428,
      "stopniowo": 7429,
      "opodal": 7430,
      "zwierzęta": 7431,
      "poważnie": 7432,
      "gospodarz": 7433,
      "zboża": 7434,
      "wspomniał": 7435,
      "porządku": 7436,
      "Prócz": 7437,
      "Małgo": 7438,
      "Szlachta": 7439,
      "Ojciec": 7440,
      ").": 7441,
      "Rzu": 7442,
      "Zbro": 7443,
      "gne": 7444,
      "jny": 7445,
      "lna": 7446,
      "snych": 7447,
      "snęły": 7448,
      "uwiel": 7449,
      "upad": 7450,
      "uwierzy": 7451,
      "wstę": 7452,
      "zg": 7453,
      "zn": 7454,
      "zbi": 7455,
      "niespokojnie": 7456,
      "pociąg": 7457,
      "powrócił": 7458,
      "widzenia": 7459,
      "wiódł": 7460,
      "jener": 7461,
      "koniem": 7462,
      "ciche": 7463,
      "zacze": 7464,
      "zacznie": 7465,
      "zabezpie": 7466,
      "dopomó": 7467,
      "lecie": 7468,
      "lewej": 7469,
      "mizer": 7470,
      "kaf": 7471,
      "pat": 7472,
      "palec": 7473,
      "wykrę": 7474,
      "prześla": 7475,
      "cek": 7476,
      "tutej": 7477,
      "gatu": 7478,
      "pij": 7479,
      "podnie": 7480,
      "dur": 7481,
      "Jaś": 7482,
      "jęki": 7483,
      "skoczyła": 7484,
      "cud": 7485,
      "trzeź": 7486,
      "twarzach": 7487,
      "płakać": 7488,
      "płaczem": 7489,
      "jakom": 7490,
      "czując": 7491,
      "mężem": 7492,
      "trawy": 7493,
      "złotą": 7494,
      "wolnym": 7495,
      "świeciły": 7496,
      "nikczem": 7497,
      "Domi": 7498,
      "ścianie": 7499,
      "Kocha": 7500,
      "krześle": 7501,
      "mocny": 7502,
      "postacie": 7503,
      "postawił": 7504,
      "hoł": 7505,
      "spali": 7506,
      "Szwedami": 7507,
      "towarzysze": 7508,
      "skrzydeł": 7509,
      "zbiera": 7510,
      "palcem": 7511,
      "znajdę": 7512,
      "skończy": 7513,
      "pójdą": 7514,
      "największy": 7515,
      "kawalerze": 7516,
      "przekonać": 7517,
      "dojrzeć": 7518,
      "miesiące": 7519,
      "Fenicjan": 7520,
      "żółte": 7521,
      "pożegnał": 7522,
      "otuchy": 7523,
      "objęcia": 7524,
      "oglądać": 7525,
      "Francu": 7526,
      "Taurogach": 7527,
      "Konstan": 7528,
      "Memfisu": 7529,
      "Dał": 7530,
      "For": 7531,
      "Sła": 7532,
      "Zale": 7533,
      "jne": 7534,
      "oc": 7535,
      "osobie": 7536,
      "udzie": 7537,
      "zin": 7538,
      "niektóre": 7539,
      "rowali": 7540,
      "winie": 7541,
      "widzą": 7542,
      "zada": 7543,
      "miną": 7544,
      "towe": 7545,
      "wozie": 7546,
      "czysty": 7547,
      "czynią": 7548,
      "mowali": 7549,
      "szyła": 7550,
      "kują": 7551,
      "mur": 7552,
      "czeniem": 7553,
      "bieży": 7554,
      "tumu": 7555,
      "siel": 7556,
      "skier": 7557,
      "prosty": 7558,
      "byłbym": 7559,
      "chwilo": 7560,
      "słab": 7561,
      "lęk": 7562,
      "jona": 7563,
      "bezła": 7564,
      "jakowe": 7565,
      "czuć": 7566,
      "pięści": 7567,
      "brodę": 7568,
      "przyjaźń": 7569,
      "drzeć": 7570,
      "przyjacielem": 7571,
      "wysokości": 7572,
      "słuchając": 7573,
      "nieprzyjacielowi": 7574,
      "wilk": 7575,
      "dobrodzie": 7576,
      "zajęty": 7577,
      "matkę": 7578,
      "ukazując": 7579,
      "wierzch": 7580,
      "układy": 7581,
      "ruszać": 7582,
      "rozkosz": 7583,
      "krąg": 7584,
      "Pójdzie": 7585,
      "brzuch": 7586,
      "odległo": 7587,
      "honoru": 7588,
      "wieczerzy": 7589,
      "stanowczo": 7590,
      "Łubniów": 7591,
      "Najświętszej": 7592,
      "Dalej": 7593,
      "Zaćwilichowski": 7594,
      "Biada": 7595,
      "Cu": 7596,
      "Zdro": 7597,
      "eg": 7598,
      "ilu": 7599,
      "lwy": 7600,
      "ochro": 7601,
      "wnu": 7602,
      "zją": 7603,
      "zdę": 7604,
      "niewie": 7605,
      "pomoże": 7606,
      "posłał": 7607,
      "pokazało": 7608,
      "rab": 7609,
      "rzeczach": 7610,
      "cisnął": 7611,
      "zabój": 7612,
      "zakończył": 7613,
      "wyk": 7614,
      "wyś": 7615,
      "wybra": 7616,
      "nome": 7617,
      "dary": 7618,
      "przepy": 7619,
      "przeszła": 7620,
      "przemówić": 7621,
      "przewyż": 7622,
      "mierz": 7623,
      "przychodziło": 7624,
      "stawała": 7625,
      "bienie": 7626,
      "codziennie": 7627,
      "pieszczo": 7628,
      "bito": 7629,
      "niali": 7630,
      "piwa": 7631,
      "pisze": 7632,
      "nędza": 7633,
      "pej": 7634,
      "jednemu": 7635,
      "medy": 7636,
      "najbliż": 7637,
      "skoczyli": 7638,
      "tamten": 7639,
      "styn": 7640,
      "oknem": 7641,
      "niętą": 7642,
      "Szli": 7643,
      "czyniła": 7644,
      "Lisie": 7645,
      "warto": 7646,
      "pływa": 7647,
      "pędem": 7648,
      "Przyj": 7649,
      "młodzie": 7650,
      "dawny": 7651,
      "zdobyć": 7652,
      "ofiar": 7653,
      "przyjaciele": 7654,
      "starał": 7655,
      "strasznym": 7656,
      "żura": 7657,
      "piasek": 7658,
      "wiernych": 7659,
      "nieszczęścia": 7660,
      "godności": 7661,
      "żałował": 7662,
      "Chmielnickim": 7663,
      "sędzia": 7664,
      "miecznika": 7665,
      "podniósłszy": 7666,
      "zapasy": 7667,
      "białego": 7668,
      "Weź": 7669,
      "nauki": 7670,
      "naukę": 7671,
      "pachołka": 7672,
      "głównie": 7673,
      "groźne": 7674,
      "Krzyżak": 7675,
      "waszmościom": 7676,
      "przejść": 7677,
      "kwate": 7678,
      "wypadku": 7679,
      "namiotu": 7680,
      "przestrzeń": 7681,
      "pracować": 7682,
      "potrzebne": 7683,
      "przytomność": 7684,
      "Pamiętaj": 7685,
      "stosunki": 7686,
      "widywał": 7687,
      "wpływem": 7688,
      "czwarty": 7689,
      "Głupi": 7690,
      "Miłości": 7691,
      "Pozwól": 7692,
      "Klejn": 7693,
      "dżun": 7694,
      "filozo": 7695,
      "amen": 7696,
      "fin": 7697,
      "iro": 7698,
      "knęła": 7699,
      "lało": 7700,
      "psze": 7701,
      "prą": 7702,
      "ssi": 7703,
      "niewidzial": 7704,
      "nagi": 7705,
      "naokoło": 7706,
      "pochwycił": 7707,
      "rośnie": 7708,
      "listu": 7709,
      "wic": 7710,
      "ciszej": 7711,
      "zastęp": 7712,
      "zabiera": 7713,
      "doby": 7714,
      "lekar": 7715,
      "wantu": 7716,
      "wyto": 7717,
      "ryba": 7718,
      "przeko": 7719,
      "murach": 7720,
      "ściskając": 7721,
      "ruj": 7722,
      "rozpoczął": 7723,
      "spotyka": 7724,
      "wiają": 7725,
      "szacu": 7726,
      "podwój": 7727,
      "stojących": 7728,
      "puść": 7729,
      "obrzy": 7730,
      "Zawi": 7731,
      "żach": 7732,
      "powiedziawszy": 7733,
      "budow": 7734,
      "najmil": 7735,
      "tętent": 7736,
      "nionych": 7737,
      "kładał": 7738,
      "męstwo": 7739,
      "pełna": 7740,
      "szedłszy": 7741,
      "świeci": 7742,
      "choćbym": 7743,
      "robisz": 7744,
      "Kat": 7745,
      "grana": 7746,
      "Koniec": 7747,
      "drzewami": 7748,
      "pokor": 7749,
      "ogląd": 7750,
      "komtur": 7751,
      "uczyniło": 7752,
      "panom": 7753,
      "królewską": 7754,
      "trybu": 7755,
      "Czekaj": 7756,
      "zdrowa": 7757,
      "ujrzy": 7758,
      "ostatnim": 7759,
      "ostatniego": 7760,
      "młodym": 7761,
      "zgody": 7762,
      "piął": 7763,
      "dalszych": 7764,
      "ogarnęła": 7765,
      "Kilka": 7766,
      "Dzieci": 7767,
      "srodze": 7768,
      "wydobyć": 7769,
      "otchła": 7770,
      "pokryte": 7771,
      "Ketlinga": 7772,
      "boleść": 7773,
      "zimno": 7774,
      "zaniepoko": 7775,
      "westchnie": 7776,
      "Chamis": 7777,
      "salonu": 7778,
      "przypatrywał": 7779,
      "wodzem": 7780,
      "wyglądała": 7781,
      "Benedykt": 7782,
      "pragnąc": 7783,
      "Szkoda": 7784,
      "kompanii": 7785,
      "niezawodnie": 7786,
      "kwar": 7787,
      "psi": 7788,
      "plan": 7789,
      "snęło": 7790,
      "tkli": 7791,
      "uzna": 7792,
      "vi": 7793,
      "zro": 7794,
      "zgodzi": 7795,
      "niedzie": 7796,
      "namię": 7797,
      "pociągnął": 7798,
      "pomyśleć": 7799,
      "dzała": 7800,
      "jecie": 7801,
      "koli": 7802,
      "zakrę": 7803,
      "doty": 7804,
      "mistrze": 7805,
      "wywie": 7806,
      "wytę": 7807,
      "wychu": 7808,
      "wypadł": 7809,
      "wyrok": 7810,
      "dachu": 7811,
      "ryb": 7812,
      "morzu": 7813,
      "szyły": 7814,
      "starej": 7815,
      "czewa": 7816,
      "bieli": 7817,
      "tując": 7818,
      "spoza": 7819,
      "prawą": 7820,
      "beze": 7821,
      "duję": 7822,
      "rzekłbyś": 7823,
      "obcych": 7824,
      "prote": 7825,
      "suchy": 7826,
      "budzi": 7827,
      "słuchała": 7828,
      "Chciałem": 7829,
      "skoczyć": 7830,
      "tamci": 7831,
      "giej": 7832,
      "jowski": 7833,
      "wędro": 7834,
      "słysząc": 7835,
      "Stan": 7836,
      "stek": 7837,
      "wolności": 7838,
      "zdało": 7839,
      "zdanie": 7840,
      "Karol": 7841,
      "ścianą": 7842,
      "żołnierzom": 7843,
      "konfi": 7844,
      "bladła": 7845,
      "blaskiem": 7846,
      "odebrał": 7847,
      "chorąży": 7848,
      "głęb": 7849,
      "drga": 7850,
      "cjach": 7851,
      "mieszkanie": 7852,
      "świątynie": 7853,
      "jasny": 7854,
      "powita": 7855,
      "myśleli": 7856,
      "Mógł": 7857,
      "leciały": 7858,
      "ciekawością": 7859,
      "Marta": 7860,
      "kupców": 7861,
      "trząsł": 7862,
      "Zygmu": 7863,
      "Strasz": 7864,
      "Póź": 7865,
      "ożenił": 7866,
      "cichym": 7867,
      "kolumny": 7868,
      "Jednocześnie": 7869,
      "jechawszy": 7870,
      "Muszalski": 7871,
      "Wzią": 7872,
      "ali": 7873,
      "es": 7874,
      "osło": 7875,
      "okazał": 7876,
      "uprze": 7877,
      "utrzymać": 7878,
      "wprowa": 7879,
      "czało": 7880,
      "polach": 7881,
      "porządek": 7882,
      "zatrzymać": 7883,
      "zaścian": 7884,
      "dokład": 7885,
      "kano": 7886,
      "wyba": 7887,
      "wyrazem": 7888,
      "wynagro": 7889,
      "tecznie": 7890,
      "noga": 7891,
      "daję": 7892,
      "czyń": 7893,
      "rych": 7894,
      "przemy": 7895,
      "mona": 7896,
      "cesar": 7897,
      "przyga": 7898,
      "przyjechali": 7899,
      "kupi": 7900,
      "kupę": 7901,
      "ściga": 7902,
      "według": 7903,
      "rui": 7904,
      "wałów": 7905,
      "rozsy": 7906,
      "rozciąg": 7907,
      "żywi": 7908,
      "więzi": 7909,
      "onów": 7910,
      "byłeś": 7911,
      "Wol": 7912,
      "buntu": 7913,
      "krzyżo": 7914,
      "straże": 7915,
      "zia": 7916,
      "reszta": 7917,
      "czynili": 7918,
      "czyniąc": 7919,
      "Sakowi": 7920,
      "dzam": 7921,
      "trum": 7922,
      "Kama": 7923,
      "Gdyż": 7924,
      "wiom": 7925,
      "konten": 7926,
      "zdoł": 7927,
      "tłumów": 7928,
      "śpiewał": 7929,
      "Dali": 7930,
      "zbliżał": 7931,
      "głuche": 7932,
      "siowi": 7933,
      "połowę": 7934,
      "robota": 7935,
      "wszelki": 7936,
      "rzucali": 7937,
      "nauka": 7938,
      "przyszłości": 7939,
      "prawdziwy": 7940,
      "Ojca": 7941,
      "derwi": 7942,
      "układów": 7943,
      "niezmierną": 7944,
      "Witolda": 7945,
      "drobne": 7946,
      "ńczyk": 7947,
      "elektor": 7948,
      "Mahdi": 7949,
      "cofać": 7950,
      "despera": 7951,
      "kapelusz": 7952,
      "Drugi": 7953,
      "spotkała": 7954,
      "Aleksandra": 7955,
      "Różyc": 7956,
      "Ozyrysa": 7957,
      "witeb": 7958,
      "DZ": 7959,
      "Ina": 7960,
      "aka": 7961,
      "ii": 7962,
      "klo": 7963,
      "lla": 7964,
      "mły": 7965,
      "opła": 7966,
      "osobą": 7967,
      "sfor": 7968,
      "spełni": 7969,
      "trów": 7970,
      "wpada": 7971,
      "śnięte": 7972,
      "czkach": 7973,
      "popa": 7974,
      "popie": 7975,
      "pośród": 7976,
      "stki": 7977,
      "wid": 7978,
      "wita": 7979,
      "gołę": 7980,
      "koci": 7981,
      "bydła": 7982,
      "wybo": 7983,
      "wystąpił": 7984,
      "wysyła": 7985,
      "jadła": 7986,
      "dama": 7987,
      "masze": 7988,
      "kupił": 7989,
      "starzy": 7990,
      "pieniu": 7991,
      "chowi": 7992,
      "łup": 7993,
      "jutra": 7994,
      "głowach": 7995,
      "kłe": 7996,
      "stoso": 7997,
      "szczer": 7998,
      "jedli": 7999,
      "skami": 8000,
      "powietrza": 8001,
      "Bogowie": 8002,
      "Taka": 8003,
      "Toć": 8004,
      "śmieli": 8005,
      "siada": 8006,
      "krzykiem": 8007,
      "sąsie": 8008,
      "długa": 8009,
      "pewność": 8010,
      "fali": 8011,
      "Sary": 8012,
      "zdawały": 8013,
      "miłował": 8014,
      "granicę": 8015,
      "podobnie": 8016,
      "hetmanów": 8017,
      "królewskiego": 8018,
      "szeptać": 8019,
      "gałą": 8020,
      "uwagą": 8021,
      "krewny": 8022,
      "czekaj": 8023,
      "mogłaby": 8024,
      "oficera": 8025,
      "listów": 8026,
      "wszelkiego": 8027,
      "Danuśka": 8028,
      "zdrady": 8029,
      "śladu": 8030,
      "Chryste": 8031,
      "pułkownicy": 8032,
      "groźnie": 8033,
      "wyprawę": 8034,
      "tajemnicy": 8035,
      "prawdziwie": 8036,
      "żywności": 8037,
      "Nerona": 8038,
      "pilnować": 8039,
      "zmieniła": 8040,
      "Rzeczpospolitą": 8041,
      "próbował": 8042,
      "zwyczaju": 8043,
      "dowcip": 8044,
      "Czyliż": 8045,
      "piętnaście": 8046,
      "Asto": 8047,
      "Dia": 8048,
      "Próżno": 8049,
      "Strze": 8050,
      "ażebym": 8051,
      "atrium": 8052,
      "kałem": 8053,
      "wsz": 8054,
      "złą": 8055,
      "zdziwił": 8056,
      "związa": 8057,
      "śl": 8058,
      "Źle": 8059,
      "rzona": 8060,
      "szlo": 8061,
      "poglą": 8062,
      "postąpił": 8063,
      "roga": 8064,
      "lina": 8065,
      "zadu": 8066,
      "zapło": 8067,
      "wiedzi": 8068,
      "pagór": 8069,
      "wytr": 8070,
      "wychowa": 8071,
      "wyjazd": 8072,
      "topo": 8073,
      "wodzi": 8074,
      "nol": 8075,
      "odbij": 8076,
      "przeklę": 8077,
      "moty": 8078,
      "szyder": 8079,
      "przygar": 8080,
      "rezo": 8081,
      "sadził": 8082,
      "tum": 8083,
      "ganek": 8084,
      "praca": 8085,
      "podsta": 8086,
      "charak": 8087,
      "Namiest": 8088,
      "inżynie": 8089,
      "czonego": 8090,
      "Tarko": 8091,
      "Taczewa": 8092,
      "Jerem": 8093,
      "ciężar": 8094,
      "trzej": 8095,
      "płakała": 8096,
      "tron": 8097,
      "dzeni": 8098,
      "szedłem": 8099,
      "dalece": 8100,
      "Tej": 8101,
      "szkody": 8102,
      "Bara": 8103,
      "Kmicico": 8104,
      "dników": 8105,
      "grać": 8106,
      "oboj": 8107,
      "lubię": 8108,
      "Zbyszku": 8109,
      "zmienić": 8110,
      "święci": 8111,
      "ucieczki": 8112,
      "czerni": 8113,
      "strasznego": 8114,
      "pamiętaj": 8115,
      "zrobiła": 8116,
      "grzech": 8117,
      "wierny": 8118,
      "Tatary": 8119,
      "jedynie": 8120,
      "dzieckiem": 8121,
      "białej": 8122,
      "szerokie": 8123,
      "świta": 8124,
      "dobrowolnie": 8125,
      "opieku": 8126,
      "kawalera": 8127,
      "zrozumieć": 8128,
      "kwatery": 8129,
      "zamknięte": 8130,
      "nagrody": 8131,
      "wysłać": 8132,
      "pijany": 8133,
      "strzałów": 8134,
      "Arnol": 8135,
      "fortuny": 8136,
      "Zbaraża": 8137,
      "źrenice": 8138,
      "Pomponii": 8139,
      "muszkietów": 8140,
      "ułat": 8141,
      "asyryj": 8142,
      "surdu": 8143,
      "regular": 8144,
      "mazowiec": 8145,
      "reth": 8146,
      "Inaczej": 8147,
      "Astoreth": 8148,
      "Emili": 8149,
      "Wśród": 8150,
      "Wprawdzie": 8151,
      "anie": 8152,
      "awantu": 8153,
      "ktem": 8154,
      "lku": 8155,
      "mle": 8156,
      "opę": 8157,
      "snej": 8158,
      "schod": 8159,
      "uchro": 8160,
      "zwali": 8161,
      "Śmier": 8162,
      "niektórych": 8163,
      "poszu": 8164,
      "ałą": 8165,
      "niwszy": 8166,
      "rzemie": 8167,
      "libij": 8168,
      "zapadła": 8169,
      "domyśla": 8170,
      "dochodziły": 8171,
      "łoże": 8172,
      "leje": 8173,
      "bystry": 8174,
      "wierze": 8175,
      "wyłą": 8176,
      "dziwo": 8177,
      "rynku": 8178,
      "odem": 8179,
      "przyło": 8180,
      "kurza": 8181,
      "stanu": 8182,
      "wen": 8183,
      "chom": 8184,
      "chował": 8185,
      "gale": 8186,
      "zewnątrz": 8187,
      "piwnicy": 8188,
      "wiara": 8189,
      "szach": 8190,
      "pracę": 8191,
      "beja": 8192,
      "Posta": 8193,
      "Zapewne": 8194,
      "proch": 8195,
      "powiesz": 8196,
      "rzać": 8197,
      "słonio": 8198,
      "kąt": 8199,
      "ciami": 8200,
      "Toli": 8201,
      "Paweł": 8202,
      "strzegł": 8203,
      "nięta": 8204,
      "Saba": 8205,
      "ścianach": 8206,
      "Kobie": 8207,
      "Wielu": 8208,
      "szom": 8209,
      "Wołodyjowskiemu": 8210,
      "znoś": 8211,
      "Misie": 8212,
      "Wasz": 8213,
      "uderzyła": 8214,
      "czarną": 8215,
      "ciężkiej": 8216,
      "zjawił": 8217,
      "ostatnią": 8218,
      "modlił": 8219,
      "zgodził": 8220,
      "skończyć": 8221,
      "wachla": 8222,
      "rządca": 8223,
      "matce": 8224,
      "przerwała": 8225,
      "szlachetny": 8226,
      "okolicę": 8227,
      "Pamięta": 8228,
      "Kroto": 8229,
      "niepokojem": 8230,
      "wściekłością": 8231,
      "dostrzegł": 8232,
      "Janusz": 8233,
      "obywatel": 8234,
      "Rozumiem": 8235,
      "Kuklinowski": 8236,
      "zgryzo": 8237,
      "zapalczy": 8238,
      "Człowiek": 8239,
      "Konstanty": 8240,
      "rezolu": 8241,
      "KIA": 8242,
      "Mło": 8243,
      "Ode": 8244,
      "XV": 8245,
      "brza": 8246,
      "cła": 8247,
      "cmenta": 8248,
      "gdaj": 8249,
      "ktach": 8250,
      "opuszcza": 8251,
      "oświet": 8252,
      "snąwszy": 8253,
      "spadła": 8254,
      "uś": 8255,
      "rzałem": 8256,
      "szpi": 8257,
      "powsze": 8258,
      "pocznie": 8259,
      "postęp": 8260,
      "podziw": 8261,
      "podar": 8262,
      "niczy": 8263,
      "radził": 8264,
      "liczyć": 8265,
      "wija": 8266,
      "gowi": 8267,
      "cich": 8268,
      "zapyta": 8269,
      "wyz": 8270,
      "wypła": 8271,
      "wychodzi": 8272,
      "wyszły": 8273,
      "jaskra": 8274,
      "wozu": 8275,
      "cienia": 8276,
      "stawały": 8277,
      "stanęły": 8278,
      "bab": 8279,
      "conych": 8280,
      "rozry": 8281,
      "sowy": 8282,
      "nędzy": 8283,
      "Jaka": 8284,
      "skaza": 8285,
      "setki": 8286,
      "Wolał": 8287,
      "rzad": 8288,
      "cuda": 8289,
      "słońcem": 8290,
      "Towarzy": 8291,
      "dałem": 8292,
      "dźwięk": 8293,
      "chciwie": 8294,
      "strzelił": 8295,
      "nięto": 8296,
      "dzając": 8297,
      "ranny": 8298,
      "Wyszo": 8299,
      "dwanaście": 8300,
      "dwakroć": 8301,
      "ciemna": 8302,
      "trwała": 8303,
      "Pewnego": 8304,
      "ważnie": 8305,
      "tarczy": 8306,
      "dniami": 8307,
      "uczynili": 8308,
      "poznali": 8309,
      "ludzkim": 8310,
      "ażebyś": 8311,
      "zrobiło": 8312,
      "lekce": 8313,
      "zdumienie": 8314,
      "powtórzyła": 8315,
      "starość": 8316,
      "jeździł": 8317,
      "Danusię": 8318,
      "długich": 8319,
      "opieką": 8320,
      "przekonał": 8321,
      "miesiąca": 8322,
      "Chilona": 8323,
      "podobie": 8324,
      "hajdu": 8325,
      "spełnić": 8326,
      "spoglądali": 8327,
      "powrocie": 8328,
      "umysł": 8329,
      "napast": 8330,
      "Krymu": 8331,
      "mężczyzn": 8332,
      "muzyka": 8333,
      "chwytając": 8334,
      "sukni": 8335,
      "Póki": 8336,
      "Lipków": 8337,
      "zatrzymali": 8338,
      "rozporzą": 8339,
      "Kurce": 8340,
      "Kiemlicz": 8341,
      "siodła": 8342,
      "Hlawa": 8343,
      "Wittenberg": 8344,
      "Rawlison": 8345,
      "FORKIA": 8346,
      "Gerwazy": 8347,
      "Tyzenhauz": 8348,
      "rezulta": 8349,
      "Jeremiego": 8350,
      "Obie": 8351,
      "Upi": 8352,
      "Wczo": 8353,
      "igrzy": 8354,
      "sprzed": 8355,
      "swemu": 8356,
      "tce": 8357,
      "tniej": 8358,
      "upoko": 8359,
      "unosi": 8360,
      "zrobię": 8361,
      "źród": 8362,
      "poci": 8363,
      "pohań": 8364,
      "pobojo": 8365,
      "strę": 8366,
      "zamil": 8367,
      "dowe": 8368,
      "wyjeżdża": 8369,
      "wybiera": 8370,
      "rychło": 8371,
      "ciej": 8372,
      "odby": 8373,
      "przenik": 8374,
      "mary": 8375,
      "rumia": 8376,
      "pierzch": 8377,
      "rozsąd": 8378,
      "ganku": 8379,
      "spoty": 8380,
      "obcy": 8381,
      "Zaprawdę": 8382,
      "sym": 8383,
      "mięsa": 8384,
      "wąż": 8385,
      "kąpie": 8386,
      "arty": 8387,
      "jakową": 8388,
      "pięścią": 8389,
      "świate": 8390,
      "faj": 8391,
      "studen": 8392,
      "krop": 8393,
      "człowiekowi": 8394,
      "Gdybyś": 8395,
      "glej": 8396,
      "chwytał": 8397,
      "hetmanowi": 8398,
      "zbliżywszy": 8399,
      "skarbów": 8400,
      "żadnym": 8401,
      "uśmiechał": 8402,
      "wiernie": 8403,
      "ostatnia": 8404,
      "dziwna": 8405,
      "dziwnego": 8406,
      "nadzieją": 8407,
      "powiedziałem": 8408,
      "robotę": 8409,
      "dalszą": 8410,
      "naszemu": 8411,
      "oddam": 8412,
      "Mówią": 8413,
      "żegnać": 8414,
      "żegnał": 8415,
      "gospody": 8416,
      "szczęściem": 8417,
      "policji": 8418,
      "nadeszła": 8419,
      "Hira": 8420,
      "procent": 8421,
      "błogosławił": 8422,
      "Sene": 8423,
      "Pamiętam": 8424,
      "Musiał": 8425,
      "zmieszany": 8426,
      "pachołków": 8427,
      "Tygellinus": 8428,
      "wzruszony": 8429,
      "pospól": 8430,
      "Labiryntu": 8431,
      "odezwała": 8432,
      "rianum": 8433,
      "niechybnie": 8434,
      "obiecywał": 8435,
      "Żmujdzi": 8436,
      "Hetman": 8437,
      "sypial": 8438,
      "Ostrianum": 8439,
      "CESA": 8440,
      "wykwin": 8441,
      "Misiewiczo": 8442,
      "AN": 8443,
      "Mały": 8444,
      "brą": 8445,
      "imienia": 8446,
      "mści": 8447,
      "omy": 8448,
      "pchnął": 8449,
      "rię": 8450,
      "tór": 8451,
      "ve": 8452,
      "żnych": 8453,
      "pokrze": 8454,
      "poczuł": 8455,
      "posłów": 8456,
      "ninem": 8457,
      "rowa": 8458,
      "rzece": 8459,
      "rzeniu": 8460,
      "widziano": 8461,
      "jenia": 8462,
      "kolu": 8463,
      "zamyś": 8464,
      "zająć": 8465,
      "dowy": 8466,
      "wypeł": 8467,
      "wystąpi": 8468,
      "wybiegł": 8469,
      "jaski": 8470,
      "teli": 8471,
      "bory": 8472,
      "boskiej": 8473,
      "siński": 8474,
      "przykro": 8475,
      "stanąwszy": 8476,
      "rezy": 8477,
      "bierać": 8478,
      "sunęła": 8479,
      "wzra": 8480,
      "Chór": 8481,
      "tędy": 8482,
      "Jedź": 8483,
      "fio": 8484,
      "fizjo": 8485,
      "węgier": 8486,
      "płakał": 8487,
      "Stasiu": 8488,
      "stepie": 8489,
      "księdz": 8490,
      "zdawała": 8491,
      "trując": 8492,
      "rzędzie": 8493,
      "przyjaźni": 8494,
      "rozumieć": 8495,
      "musiało": 8496,
      "kiedykolwiek": 8497,
      "płynąć": 8498,
      "wioną": 8499,
      "większym": 8500,
      "Przypom": 8501,
      "młodości": 8502,
      "Nil": 8503,
      "kondy": 8504,
      "blaski": 8505,
      "walał": 8506,
      "Anti": 8507,
      "cemy": 8508,
      "piękności": 8509,
      "piękność": 8510,
      "powiadają": 8511,
      "radośnie": 8512,
      "ogromną": 8513,
      "obiet": 8514,
      "trąby": 8515,
      "Ktoś": 8516,
      "glądać": 8517,
      "żału": 8518,
      "pańskie": 8519,
      "cierpi": 8520,
      "Możesz": 8521,
      "bóstwa": 8522,
      "jedziemy": 8523,
      "Helu": 8524,
      "pójrz": 8525,
      "Mówiono": 8526,
      "czerwonych": 8527,
      "rozkazów": 8528,
      "waszmościów": 8529,
      "prawdziwe": 8530,
      "wstydu": 8531,
      "ulicach": 8532,
      "Ciecha": 8533,
      "najlepsze": 8534,
      "Heleny": 8535,
      "wojennych": 8536,
      "przycisnął": 8537,
      "przybrany": 8538,
      "Aulusów": 8539,
      "tłumaczył": 8540,
      "Memfis": 8541,
      "zwykłą": 8542,
      "odejść": 8543,
      "wcześniej": 8544,
      "oślep": 8545,
      "Łubniach": 8546,
      "Szczęściem": 8547,
      "Mellechowicz": 8548,
      "kuchni": 8549,
      "Florentyna": 8550,
      "starannie": 8551,
      "fink": 8552,
      "Af": 8553,
      "Glau": 8554,
      "Okru": 8555,
      "Szy": 8556,
      "ima": 8557,
      "ostry": 8558,
      "płe": 8559,
      "rki": 8560,
      "sały": 8561,
      "snego": 8562,
      "spuścił": 8563,
      "schwyta": 8564,
      "twę": 8565,
      "tkami": 8566,
      "ury": 8567,
      "utrzyma": 8568,
      "zle": 8569,
      "niejakim": 8570,
      "nało": 8571,
      "roman": 8572,
      "liby": 8573,
      "liwym": 8574,
      "licząc": 8575,
      "zacię": 8576,
      "wań": 8577,
      "rzywszy": 8578,
      "pamią": 8579,
      "wypi": 8580,
      "wyrzą": 8581,
      "nera": 8582,
      "czynienia": 8583,
      "przepra": 8584,
      "bokiem": 8585,
      "bożej": 8586,
      "przyto": 8587,
      "przysła": 8588,
      "ruję": 8589,
      "rozstrzy": 8590,
      "rozbój": 8591,
      "znad": 8592,
      "znacz": 8593,
      "Niechaj": 8594,
      "Niemiec": 8595,
      "częścią": 8596,
      "instru": 8597,
      "budził": 8598,
      "cudow": 8599,
      "siadać": 8600,
      "wojną": 8601,
      "sądzi": 8602,
      "Stacha": 8603,
      "kraje": 8604,
      "rycerzem": 8605,
      "Przede": 8606,
      "trupa": 8607,
      "Komu": 8608,
      "szonych": 8609,
      "pozór": 8610,
      "takimi": 8611,
      "Winicjuszowi": 8612,
      "rzono": 8613,
      "słowami": 8614,
      "obiecu": 8615,
      "patrzę": 8616,
      "klęskę": 8617,
      "wydar": 8618,
      "kamienia": 8619,
      "ujrzeli": 8620,
      "rozmawia": 8621,
      "Bij": 8622,
      "chorągwiami": 8623,
      "trafić": 8624,
      "zdumiony": 8625,
      "listem": 8626,
      "diu": 8627,
      "eks": 8628,
      "niewolnik": 8629,
      "gryzł": 8630,
      "spodziewać": 8631,
      "Sambu": 8632,
      "ciekawie": 8633,
      "matko": 8634,
      "ukazy": 8635,
      "rycerstwa": 8636,
      "zwróciły": 8637,
      "zapłać": 8638,
      "dzwony": 8639,
      "języka": 8640,
      "Puł": 8641,
      "egipskich": 8642,
      "Pójdę": 8643,
      "Mówię": 8644,
      "Stanisławie": 8645,
      "kawałek": 8646,
      "zapałem": 8647,
      "wieczerzę": 8648,
      "wielbłądy": 8649,
      "kaptu": 8650,
      "potwor": 8651,
      "zbóje": 8652,
      "śred": 8653,
      "zamieszanie": 8654,
      "Raszkowa": 8655,
      "lekcewa": 8656,
      "Wczoraj": 8657,
      "CESARZ": 8658,
      "Ano": 8659,
      "Czo": 8660,
      "Ol": 8661,
      "Skar": 8662,
      "WA": 8663,
      "lności": 8664,
      "onie": 8665,
      "tchó": 8666,
      "un": 8667,
      "pogro": 8668,
      "pokar": 8669,
      "wisz": 8670,
      "zatru": 8671,
      "zadowo": 8672,
      "doń": 8673,
      "żeń": 8674,
      "wykrzyknął": 8675,
      "wysłucha": 8676,
      "jasy": 8677,
      "tes": 8678,
      "tele": 8679,
      "terem": 8680,
      "lane": 8681,
      "przecha": 8682,
      "kura": 8683,
      "stal": 8684,
      "stawić": 8685,
      "piera": 8686,
      "żywego": 8687,
      "skinął": 8688,
      "zepsu": 8689,
      "puła": 8690,
      "obce": 8691,
      "promie": 8692,
      "Woł": 8693,
      "Borz": 8694,
      "wznosił": 8695,
      "ścier": 8696,
      "krzyżem": 8697,
      "dzonym": 8698,
      "mękę": 8699,
      "książęcą": 8700,
      "Palaty": 8701,
      "stety": 8702,
      "złości": 8703,
      "ciągnęły": 8704,
      "Radzie": 8705,
      "ojców": 8706,
      "Sama": 8707,
      "Litwy": 8708,
      "dworzan": 8709,
      "niechby": 8710,
      "godziło": 8711,
      "tłumu": 8712,
      "śpiew": 8713,
      "umrze": 8714,
      "szczycie": 8715,
      "drabi": 8716,
      "pułk": 8717,
      "zbierać": 8718,
      "zbrodni": 8719,
      "waćpanny": 8720,
      "plecami": 8721,
      "jedyna": 8722,
      "bogactwa": 8723,
      "Jagienkę": 8724,
      "Faszo": 8725,
      "ogromnym": 8726,
      "trwoga": 8727,
      "ofiarował": 8728,
      "władcy": 8729,
      "porusza": 8730,
      "ochota": 8731,
      "Oleńki": 8732,
      "Rusi": 8733,
      "Miej": 8734,
      "gierm": 8735,
      "posąg": 8736,
      "Cieka": 8737,
      "zdziwienie": 8738,
      "prośbę": 8739,
      "upływie": 8740,
      "stopnia": 8741,
      "Bogdańcu": 8742,
      "pracował": 8743,
      "Ryce": 8744,
      "ponuro": 8745,
      "tygodni": 8746,
      "wspomnienie": 8747,
      "Pomponia": 8748,
      "podłogę": 8749,
      "grzmot": 8750,
      "Podlasie": 8751,
      "kaplicy": 8752,
      "Dalibóg": 8753,
      "Fo": 8754,
      "ger": 8755,
      "iz": 8756,
      "mrok": 8757,
      "twym": 8758,
      "unik": 8759,
      "ukocha": 8760,
      "wprzód": 8761,
      "zjedna": 8762,
      "łba": 8763,
      "naci": 8764,
      "pota": 8765,
      "stka": 8766,
      "strzę": 8767,
      "ramienia": 8768,
      "rogi": 8769,
      "liści": 8770,
      "godna": 8771,
      "kołem": 8772,
      "kożu": 8773,
      "zao": 8774,
      "zako": 8775,
      "zapadł": 8776,
      "dochody": 8777,
      "bydło": 8778,
      "kato": 8779,
      "tara": 8780,
      "pak": 8781,
      "wymo": 8782,
      "wyprowa": 8783,
      "jazdu": 8784,
      "jadal": 8785,
      "daro": 8786,
      "rysy": 8787,
      "odbił": 8788,
      "lasów": 8789,
      "szysz": 8790,
      "mara": 8791,
      "maja": 8792,
      "przyda": 8793,
      "kus": 8794,
      "biegną": 8795,
      "rozmyślał": 8796,
      "zechcesz": 8797,
      "obrazy": 8798,
      "cząć": 8799,
      "mięso": 8800,
      "anne": 8801,
      "dobrzy": 8802,
      "cudzy": 8803,
      "kącie": 8804,
      "władza": 8805,
      "ciasno": 8806,
      "płacze": 8807,
      "dzeń": 8808,
      "Stasiowi": 8809,
      "czyłem": 8810,
      "Baron": 8811,
      "Koko": 8812,
      "oboha": 8813,
      "mentów": 8814,
      "trwa": 8815,
      "konno": 8816,
      "kontu": 8817,
      "miejsc": 8818,
      "kilkaset": 8819,
      "świętej": 8820,
      "świętych": 8821,
      "uciec": 8822,
      "tłumie": 8823,
      "śpiesz": 8824,
      "spojrzawszy": 8825,
      "Medi": 8826,
      "dziękuję": 8827,
      "spokojnym": 8828,
      "spada": 8829,
      "pułków": 8830,
      "Podkomorzy": 8831,
      "bezpiecznie": 8832,
      "piaszczy": 8833,
      "siostry": 8834,
      "smutkiem": 8835,
      "Dobra": 8836,
      "dalsze": 8837,
      "zmartwie": 8838,
      "umieją": 8839,
      "córką": 8840,
      "interesa": 8841,
      "Ojcze": 8842,
      "żywot": 8843,
      "niewiasta": 8844,
      "znajomych": 8845,
      "szybkością": 8846,
      "księżnej": 8847,
      "zapomina": 8848,
      "odzyska": 8849,
      "odzyskał": 8850,
      "wierzcho": 8851,
      "Spodzie": 8852,
      "narodów": 8853,
      "wrzask": 8854,
      "Słowa": 8855,
      "Myślę": 8856,
      "Piotro": 8857,
      "trudności": 8858,
      "fortecy": 8859,
      "podziemia": 8860,
      "błyskawice": 8861,
      "wielkości": 8862,
      "mądrości": 8863,
      "wzdycha": 8864,
      "Janusza": 8865,
      "trzeciego": 8866,
      "łańcuch": 8867,
      "klucz": 8868,
      "Taurogów": 8869,
      "wątpliwości": 8870,
      "Ukrainie": 8871,
      "bohater": 8872,
      "Wrzeszczowicz": 8873,
      "Zaledwie": 8874,
      "Namiestnik": 8875,
      "Borzoboha": 8876,
      "Gru": 8877,
      "Ostro": 8878,
      "Ski": 8879,
      "Zbli": 8880,
      "klą": 8881,
      "lskiego": 8882,
      "mroku": 8883,
      "opowiem": 8884,
      "usy": 8885,
      "ukazały": 8886,
      "wpierw": 8887,
      "ńcie": 8888,
      "powy": 8889,
      "zastępy": 8890,
      "doktora": 8891,
      "min": 8892,
      "pasy": 8893,
      "paste": 8894,
      "parob": 8895,
      "tono": 8896,
      "wodzą": 8897,
      "nocami": 8898,
      "dywał": 8899,
      "boli": 8900,
      "cerem": 8901,
      "przyłą": 8902,
      "kupie": 8903,
      "cyrku": 8904,
      "czając": 8905,
      "róz": 8906,
      "giną": 8907,
      "znane": 8908,
      "skwa": 8909,
      "stolicy": 8910,
      "dując": 8911,
      "Zatem": 8912,
      "powierzch": 8913,
      "jęcz": 8914,
      "Bom": 8915,
      "bunt": 8916,
      "najczęściej": 8917,
      "skom": 8918,
      "gęby": 8919,
      "Mary": 8920,
      "śniegiem": 8921,
      "gdzież": 8922,
      "famili": 8923,
      "fabry": 8924,
      "rycerzowi": 8925,
      "szkodzi": 8926,
      "człowieku": 8927,
      "dziada": 8928,
      "powiadała": 8929,
      "ciemnych": 8930,
      "brało": 8931,
      "Więcej": 8932,
      "chwyciła": 8933,
      "puścili": 8934,
      "zdobył": 8935,
      "Niechby": 8936,
      "trzymali": 8937,
      "szczały": 8938,
      "Ramzesie": 8939,
      "skrzyp": 8940,
      "państwie": 8941,
      "palcach": 8942,
      "gościniec": 8943,
      "kręcić": 8944,
      "zdumiał": 8945,
      "przyjdą": 8946,
      "uczcie": 8947,
      "okrutny": 8948,
      "rozmowie": 8949,
      "zobaczy": 8950,
      "pustynię": 8951,
      "niepoję": 8952,
      "pałac": 8953,
      "ogarnia": 8954,
      "nauczy": 8955,
      "Kijo": 8956,
      "rozpaczli": 8957,
      "ratuj": 8958,
      "piechotę": 8959,
      "krzywdę": 8960,
      "srebra": 8961,
      "ochoty": 8962,
      "komnat": 8963,
      "dojść": 8964,
      "Siczy": 8965,
      "zachować": 8966,
      "zapomnie": 8967,
      "nagrodę": 8968,
      "pójdziesz": 8969,
      "Dugla": 8970,
      "jakichś": 8971,
      "obliczu": 8972,
      "opuściła": 8973,
      "żelazne": 8974,
      "Anusi": 8975,
      "marszałka": 8976,
      "potrzebuję": 8977,
      "odgadnąć": 8978,
      "Kaleb": 8979,
      "tygodnie": 8980,
      "wściekłości": 8981,
      "funk": 8982,
      "Gebhra": 8983,
      "pióra": 8984,
      "ostatecznie": 8985,
      "nieboszczyk": 8986,
      "janczarów": 8987,
      "majdanie": 8988,
      "Długolasu": 8989,
      "Atene": 8990,
      "Telimena": 8991,
      "kwadrans": 8992,
      "Caro": 8993,
      "Mefistofeles": 8994,
      "Ab": 8995,
      "Có": 8996,
      "Cią": 8997,
      "Pta": 8998,
      "Plau": 8999,
      "Rusza": 9000,
      "Ucie": 9001,
      "Wraca": 9002,
      "XII": 9003,
      "nd": 9004,
      "ndra": 9005,
      "ognie": 9006,
      "uzbro": 9007,
      "wników": 9008,
      "zgieł": 9009,
      "żnie": 9010,
      "żwa": 9011,
      "niepokoju": 9012,
      "nan": 9013,
      "nadej": 9014,
      "popra": 9015,
      "pochodzi": 9016,
      "stłu": 9017,
      "strzała": 9018,
      "rosła": 9019,
      "rzeką": 9020,
      "lisz": 9021,
      "lica": 9022,
      "wiwa": 9023,
      "zawrócił": 9024,
      "zabły": 9025,
      "zagrz": 9026,
      "minął": 9027,
      "waża": 9028,
      "kania": 9029,
      "kiw": 9030,
      "wyzy": 9031,
      "wybrze": 9032,
      "wyobraź": 9033,
      "nosem": 9034,
      "dziego": 9035,
      "przyjeżdża": 9036,
      "coną": 9037,
      "cokolwiek": 9038,
      "rozwese": 9039,
      "ręt": 9040,
      "głosi": 9041,
      "sował": 9042,
      "szanu": 9043,
      "gią": 9044,
      "chacie": 9045,
      "ducho": 9046,
      "proje": 9047,
      "Woje": 9048,
      "wzgar": 9049,
      "Tar": 9050,
      "grobu": 9051,
      "węża": 9052,
      "płacił": 9053,
      "straci": 9054,
      "strachem": 9055,
      "niosę": 9056,
      "książęce": 9057,
      "tracił": 9058,
      "świade": 9059,
      "pewnej": 9060,
      "Panny": 9061,
      "Sadowski": 9062,
      "zdarzy": 9063,
      "wołała": 9064,
      "komtu": 9065,
      "kochanie": 9066,
      "kobietą": 9067,
      "panował": 9068,
      "starszych": 9069,
      "hetmanem": 9070,
      "drzwiom": 9071,
      "lekki": 9072,
      "żadną": 9073,
      "Kuda": 9074,
      "czekają": 9075,
      "żałośnie": 9076,
      "dziesiąty": 9077,
      "skończyła": 9078,
      "plecach": 9079,
      "Bero": 9080,
      "szeroki": 9081,
      "chodzące": 9082,
      "umiem": 9083,
      "głębokie": 9084,
      "pułkowniku": 9085,
      "głośniej": 9086,
      "ognisku": 9087,
      "Zyndra": 9088,
      "gorsze": 9089,
      "otwór": 9090,
      "potrafił": 9091,
      "przyczyną": 9092,
      "okropnie": 9093,
      "doświadczony": 9094,
      "wdzięcznością": 9095,
      "szturmu": 9096,
      "więzieniu": 9097,
      "wezmą": 9098,
      "mężczyzna": 9099,
      "Wilk": 9100,
      "wściekłość": 9101,
      "Cezar": 9102,
      "gałęzie": 9103,
      "Krzeszowska": 9104,
      "Malborgu": 9105,
      "Droga": 9106,
      "majestatu": 9107,
      "ptaków": 9108,
      "chwałę": 9109,
      "sposobność": 9110,
      "Częstochowy": 9111,
      "oprzeć": 9112,
      "pomieścić": 9113,
      "*.": 9114,
      "CZ": 9115,
      "Dok": 9116,
      "Gnie": 9117,
      "HELE": 9118,
      "MU": 9119,
      "Zbawi": 9120,
      "fem": 9121,
      "nność": 9122,
      "owiec": 9123,
      "udać": 9124,
      "ukoń": 9125,
      "umiesz": 9126,
      "wstąpił": 9127,
      "Śpie": 9128,
      "śmiała": 9129,
      "czcią": 9130,
      "cznika": 9131,
      "pokła": 9132,
      "powięk": 9133,
      "poszło": 9134,
      "strzą": 9135,
      "radą": 9136,
      "rzek": 9137,
      "winę": 9138,
      "wiszą": 9139,
      "zawiado": 9140,
      "zarumie": 9141,
      "lety": 9142,
      "bynajmniej": 9143,
      "wyło": 9144,
      "wyrazy": 9145,
      "jadąc": 9146,
      "towych": 9147,
      "darował": 9148,
      "czyby": 9149,
      "czystą": 9150,
      "dymy": 9151,
      "odpra": 9152,
      "lali": 9153,
      "latach": 9154,
      "przeby": 9155,
      "przeraz": 9156,
      "przeszli": 9157,
      "mom": 9158,
      "machnął": 9159,
      "stając": 9160,
      "czeli": 9161,
      "szenia": 9162,
      "bicie": 9163,
      "rozej": 9164,
      "roześ": 9165,
      "lus": 9166,
      "sować": 9167,
      "stołem": 9168,
      "pus": 9169,
      "syno": 9170,
      "Wolę": 9171,
      "trzymała": 9172,
      "braknie": 9173,
      "piersią": 9174,
      "bezbro": 9175,
      "Toś": 9176,
      "wędzi": 9177,
      "arma": 9178,
      "wszela": 9179,
      "dzonego": 9180,
      "swojego": 9181,
      "oknie": 9182,
      "Panowie": 9183,
      "pełnym": 9184,
      "step": 9185,
      "kazałem": 9186,
      "trudy": 9187,
      "mniejszych": 9188,
      "Nita": 9189,
      "szlachcie": 9190,
      "nowinę": 9191,
      "walczyć": 9192,
      "zamki": 9193,
      "zamków": 9194,
      "uciekła": 9195,
      "włosami": 9196,
      "pięknej": 9197,
      "szczem": 9198,
      "nosili": 9199,
      "rozmawiając": 9200,
      "morder": 9201,
      "Kul": 9202,
      "Dobry": 9203,
      "wilcy": 9204,
      "gromada": 9205,
      "począwszy": 9206,
      "błagać": 9207,
      "Jagieł": 9208,
      "gorączka": 9209,
      "zajęcia": 9210,
      "czerwony": 9211,
      "Alboż": 9212,
      "szeregach": 9213,
      "groźny": 9214,
      "pociechy": 9215,
      "Justyny": 9216,
      "powrotu": 9217,
      "kozackie": 9218,
      "uważać": 9219,
      "Dopieroż": 9220,
      "szturm": 9221,
      "słodkie": 9222,
      "MAR": 9223,
      "nienawiści": 9224,
      "Murzyn": 9225,
      "uważnie": 9226,
      "ambi": 9227,
      "zmiarko": 9228,
      "wiekui": 9229,
      "Tadeusza": 9230,
      "mołojcy": 9231,
      "Chłop": 9232,
      "fałszy": 9233,
      "szczególnie": 9234,
      "żelaza": 9235,
      "Zamościa": 9236,
      "Krzywonos": 9237,
      "okazji": 9238,
      "Bedui": 9239,
      "Krzeczowski": 9240,
      "Babinicza": 9241,
      "fontan": 9242,
      "Miłościwy": 9243,
      "Tarkowski": 9244,
      "FORKIADA": 9245,
      "HELENA": 9246,
      "Ewka": 9247,
      "Gra": 9248,
      "Gar": 9249,
      "IV": 9250,
      "Krew": 9251,
      "Nale": 9252,
      "Tfu": 9253,
      "bre": 9254,
      "hę": 9255,
      "ory": 9256,
      "tnika": 9257,
      "ubogi": 9258,
      "udało": 9259,
      "wpadli": 9260,
      "zon": 9261,
      "zwalił": 9262,
      "Świe": 9263,
      "rząc": 9264,
      "niek": 9265,
      "nieła": 9266,
      "niezwykły": 9267,
      "nieznoś": 9268,
      "nawie": 9269,
      "chało": 9270,
      "czkiem": 9271,
      "podać": 9272,
      "rabu": 9273,
      "roki": 9274,
      "linii": 9275,
      "wisku": 9276,
      "wiózł": 9277,
      "koniom": 9278,
      "zadzi": 9279,
      "zakli": 9280,
      "zawsty": 9281,
      "doły": 9282,
      "doznał": 9283,
      "dokończył": 9284,
      "mig": 9285,
      "mij": 9286,
      "miona": 9287,
      "wahał": 9288,
      "ławie": 9289,
      "wybrał": 9290,
      "torów": 9291,
      "woło": 9292,
      "wory": 9293,
      "noszę": 9294,
      "dziwy": 9295,
      "dziewią": 9296,
      "lasem": 9297,
      "maj": 9298,
      "malu": 9299,
      "boją": 9300,
      "przyjedzie": 9301,
      "kupa": 9302,
      "stają": 9303,
      "stalo": 9304,
      "bierał": 9305,
      "con": 9306,
      "turko": 9307,
      "szalony": 9308,
      "podnieśli": 9309,
      "znany": 9310,
      "kłą": 9311,
      "stopy": 9312,
      "peru": 9313,
      "Powie": 9314,
      "Posej": 9315,
      "lonego": 9316,
      "pycha": 9317,
      "anty": 9318,
      "nadsta": 9319,
      "miałbym": 9320,
      "bezsen": 9321,
      "książki": 9322,
      "Matko": 9323,
      "dalekich": 9324,
      "Rad": 9325,
      "Przeto": 9326,
      "Bast": 9327,
      "wołów": 9328,
      "skutkiem": 9329,
      "Przysię": 9330,
      "brałem": 9331,
      "pokochał": 9332,
      "płomieni": 9333,
      "pytaj": 9334,
      "Waść": 9335,
      "Czecha": 9336,
      "zdrowiu": 9337,
      "licznych": 9338,
      "siostra": 9339,
      "cierpiał": 9340,
      "znajdują": 9341,
      "zbrodnia": 9342,
      "krótkim": 9343,
      "czekali": 9344,
      "sztuk": 9345,
      "gotowości": 9346,
      "wilków": 9347,
      "Rzeczywiście": 9348,
      "zmarłych": 9349,
      "zaczęło": 9350,
      "ciotka": 9351,
      "ekspe": 9352,
      "szczęśliwa": 9353,
      "Alki": 9354,
      "otwartymi": 9355,
      "możny": 9356,
      "krzywda": 9357,
      "wtrąciła": 9358,
      "zbawienie": 9359,
      "zapłacić": 9360,
      "znikła": 9361,
      "wyjścia": 9362,
      "Zosi": 9363,
      "Zosia": 9364,
      "brzmiały": 9365,
      "włócz": 9366,
      "namioty": 9367,
      "opuścić": 9368,
      "pochodnie": 9369,
      "zuchwal": 9370,
      "Aulus": 9371,
      "obficie": 9372,
      "dłońmi": 9373,
      "służący": 9374,
      "dźwięki": 9375,
      "sąsiadów": 9376,
      "Rotgie": 9377,
      "minister": 9378,
      "Cięż": 9379,
      "bałamu": 9380,
      "Dalszą": 9381,
      "Poppea": 9382,
      "semenów": 9383,
      "Patrokle": 9384,
      "Lisiecki": 9385,
      "oglądał": 9386,
      "rzemieśl": 9387,
      "świateł": 9388,
      "fizjogno": 9389,
      "Medinet": 9390,
      "Dar": 9391,
      "Grodzi": 9392,
      "Zer": 9393,
      "iskry": 9394,
      "kne": 9395,
      "ląc": 9396,
      "mgły": 9397,
      "nó": 9398,
      "spad": 9399,
      "ucałował": 9400,
      "wchodzi": 9401,
      "wtenczas": 9402,
      "znieść": 9403,
      "Żal": 9404,
      "rzów": 9405,
      "nieprawda": 9406,
      "chwały": 9407,
      "pomiarko": 9408,
      "dzały": 9409,
      "rowych": 9410,
      "goda": 9411,
      "dowej": 9412,
      "dowali": 9413,
      "doszli": 9414,
      "dochodził": 9415,
      "leżało": 9416,
      "kany": 9417,
      "paro": 9418,
      "wysi": 9419,
      "jać": 9420,
      "towy": 9421,
      "prześli": 9422,
      "monar": 9423,
      "cenę": 9424,
      "przygód": 9425,
      "wewnątrz": 9426,
      "bieg": 9427,
      "niają": 9428,
      "cale": 9429,
      "głosami": 9430,
      "deputa": 9431,
      "stojące": 9432,
      "dumą": 9433,
      "Powiem": 9434,
[...]
